{
  "version": "1.0",
  "truncation": null,
  "padding": null,
  "added_tokens": [
    {
      "id": 0,
      "content": "<pad>",
      "single_word": false,
      "lstrip": false,
      "rstrip": false,
      "normalized": false,
      "special": true
    },
    {
      "id": 1,
      "content": "<bos>",
      "single_word": false,
      "lstrip": false,
      "rstrip": false,
      "normalized": false,
      "special": true
    },
    {
      "id": 2,
      "content": "<eos>",
      "single_word": false,
      "lstrip": false,
      "rstrip": false,
      "normalized": false,
      "special": true
    },
    {
      "id": 3,
      "content": "<unk>",
      "single_word": false,
      "lstrip": false,
      "rstrip": false,
      "normalized": false,
      "special": true
    }
  ],
  "normalizer": null,
  "pre_tokenizer": {
    "type": "ByteLevel",
    "add_prefix_space": true,
    "trim_offsets": true,
    "use_regex": true
  },
  "post_processor": null,
  "decoder": {
    "type": "ByteLevel",
    "add_prefix_space": true,
    "trim_offsets": true,
    "use_regex": true
  },
  "model": {
    "type": "BPE",
    "dropout": null,
    "unk_token": null,
    "continuing_subword_prefix": null,
    "end_of_word_suffix": null,
    "fuse_unk": false,
    "byte_fallback": false,
    "ignore_merges": false,
    "vocab": {
      "<pad>": 0,
      "<bos>": 1,
      "<eos>": 2,
      "<unk>": 3,
      "!": 4,
      "\"": 5,
      "#": 6,
      "$": 7,
      "%": 8,
      "&": 9,
      "'": 10,
      "(": 11,
      ")": 12,
      "*": 13,
      "+": 14,
      ",": 15,
      "-": 16,
      ".": 17,
      "/": 18,
      "0": 19,
      "1": 20,
      "2": 21,
      "3": 22,
      "4": 23,
      "5": 24,
      "6": 25,
      "7": 26,
      "8": 27,
      "9": 28,
      ":": 29,
      ";": 30,
      "=": 31,
      ">": 32,
      "?": 33,
      "@": 34,
      "[": 35,
      "\\": 36,
      "]": 37,
      "_": 38,
      "`": 39,
      "a": 40,
      "b": 41,
      "c": 42,
      "d": 43,
      "e": 44,
      "f": 45,
      "g": 46,
      "h": 47,
      "i": 48,
      "j": 49,
      "k": 50,
      "l": 51,
      "m": 52,
      "n": 53,
      "o": 54,
      "p": 55,
      "q": 56,
      "r": 57,
      "s": 58,
      "t": 59,
      "u": 60,
      "v": 61,
      "w": 62,
      "x": 63,
      "y": 64,
      "z": 65,
      "Ċ": 66,
      "Ġ": 67,
      "Ġa": 68,
      "in": 69,
      "Ġt": 70,
      "Ġs": 71,
      "Ġo": 72,
      "ing": 73,
      "Ġb": 74,
      "it": 75,
      "Ġw": 76,
      "he": 77,
      "Ġp": 78,
      "an": 79,
      "re": 80,
      "Ġc": 81,
      "le": 82,
      "Ġon": 83,
      "er": 84,
      "Ġthe": 85,
      "at": 86,
      "Ġof": 87,
      "Ġin": 88,
      "Ġan": 89,
      "ar": 90,
      "ro": 91,
      "Ġf": 92,
      "is": 93,
      "Ġm": 94,
      "Ġwit": 95,
      "Ġwith": 96,
      "Ġh": 97,
      "Ġd": 98,
      "Ġg": 99,
      "Ġand": 100,
      "Ġl": 101,
      "al": 102,
      "en": 103,
      "Ġto": 104,
      "Ġst": 105,
      "om": 106,
      "ra": 107,
      "ding": 108,
      "es": 109,
      "on": 110,
      "ck": 111,
      "ed": 112,
      "ow": 113,
      "Ġis": 114,
      "or": 115,
      "et": 116,
      "un": 117,
      "la": 118,
      "ir": 119,
      "Ġman": 120,
      "Ġn": 121,
      "as": 122,
      "op": 123,
      "ting": 124,
      "Ġsit": 125,
      "all": 126,
      "ch": 127,
      "up": 128,
      "ri": 129,
      "oo": 130,
      "Ġne": 131,
      "il": 132,
      "Ġth": 133,
      "el": 134,
      "ot": 135,
      "ut": 136,
      "Ġwh": 137,
      "id": 138,
      "ur": 139,
      "Ġstan": 140,
      "Ġsitting": 141,
      "ol": 142,
      "ge": 143,
      "ers": 144,
      "Ġare": 145,
      "Ġtw": 146,
      "ic": 147,
      "Ġtwo": 148,
      "us": 149,
      "ard": 150,
      "ab": 151,
      "Ġat": 152,
      "ite": 153,
      "king": 154,
      "ig": 155,
      "Ġpe": 156,
      "Ġco": 157,
      "her": 158,
      "Ġe": 159,
      "Ġbe": 160,
      "Ġsk": 161,
      "ss": 162,
      "Ġre": 163,
      "ying": 164,
      "Ġstanding": 165,
      "Ġpeop": 166,
      "Ġpeople": 167,
      "Ġtra": 168,
      "ide": 169,
      "eb": 170,
      "Ġro": 171,
      "Ġwom": 172,
      "oard": 173,
      "ad": 174,
      "xt": 175,
      "Ġv": 176,
      "able": 177,
      "Ġk": 178,
      "Ġnext": 179,
      "Ġdo": 180,
      "Ġwhite": 181,
      "Ġpla": 182,
      "lo": 183,
      "Ġwoman": 184,
      "Ġit": 185,
      "ile": 186,
      "ff": 187,
      "Ġhol": 188,
      "Ġstre": 189,
      "Ġtable": 190,
      "Ġpl": 191,
      "und": 192,
      "Ġstreet": 193,
      "ome": 194,
      "Ġfi": 195,
      "Ġfro": 196,
      "ood": 197,
      "Ġbo": 198,
      "ve": 199,
      "ver": 200,
      "Ġthat": 201,
      "Ġy": 202,
      "Ġri": 203,
      "Ġholding": 204,
      "Ġpar": 205,
      "ce": 206,
      "Ġgro": 207,
      "Ġsh": 208,
      "Ġsome": 209,
      "Ġla": 210,
      "Ġtop": 211,
      "own": 212,
      "Ġch": 213,
      "Ġgra": 214,
      "Ġsm": 215,
      "ate": 216,
      "Ġpers": 217,
      "Ġperson": 218,
      "nt": 219,
      "Ġbat": 220,
      "Ġlar": 221,
      "Ġlarge": 222,
      "ant": 223,
      "oun": 224,
      "Ġdown": 225,
      "Ġcat": 226,
      "um": 227,
      "Ġwat": 228,
      "and": 229,
      "am": 230,
      "che": 231,
      "Ġclo": 232,
      "Ġpi": 233,
      "Ġup": 234,
      "Ġgroup": 235,
      "Ġfl": 236,
      "eld": 237,
      "ion": 238,
      "ach": 239,
      "Ġsn": 240,
      "Ġcar": 241,
      "Ġdog": 242,
      "ul": 243,
      "Ġout": 244,
      "Ġfield": 245,
      "ke": 246,
      "Ġnear": 247,
      "Ġten": 248,
      "Ġsnow": 249,
      "se": 250,
      "nis": 251,
      "Ġsmall": 252,
      "Ġtrain": 253,
      "ign": 254,
      "Ġtennis": 255,
      "Ġbla": 256,
      "Ġwal": 257,
      "Ġhis": 258,
      "Ġfront": 259,
      "Ġblack": 260,
      "Ġpark": 261,
      "ack": 262,
      "Ġbus": 263,
      "ree": 264,
      "Ġra": 265,
      "Ġbas": 266,
      "Ġsur": 267,
      "ug": 268,
      "Ġsign": 269,
      "st": 270,
      "ht": 271,
      "room": 272,
      "ure": 273,
      "Ġplate": 274,
      "Ġroom": 275,
      "Ġse": 276,
      "row": 277,
      "ind": 278,
      "Ġriding": 279,
      "ay": 280,
      "ell": 281,
      "Ġbl": 282,
      "Ġside": 283,
      "Ġgrass": 284,
      "Ġair": 285,
      "oung": 286,
      "Ġkit": 287,
      "Ġred": 288,
      "Ġph": 289,
      "Ġbu": 290,
      "Ġyoung": 291,
      "Ġwater": 292,
      "ue": 293,
      "im": 294,
      "Ġby": 295,
      "Ġloo": 296,
      "round": 297,
      "one": 298,
      "Ġsurf": 299,
      "ain": 300,
      "ving": 301,
      "Ġbuil": 302,
      "board": 303,
      "ru": 304,
      "Ġbath": 305,
      "ph": 306,
      "eball": 307,
      "Ġbuilding": 308,
      "Ġbaseball": 309,
      "side": 310,
      "ffe": 311,
      "Ġbed": 312,
      "reen": 313,
      "red": 314,
      "ink": 315,
      "air": 316,
      "Ġhas": 317,
      "Ġskat": 318,
      "Ġplay": 319,
      "Ġcom": 320,
      "ter": 321,
      "Ġplaying": 322,
      "Ġwhile": 323,
      "pt": 324,
      "Ġwalking": 325,
      "Ġbathroom": 326,
      "Ġskateb": 327,
      "Ġgi": 328,
      "ight": 329,
      "zz": 330,
      "Ġj": 331,
      "yc": 332,
      "Ġfood": 333,
      "Ġfor": 334,
      "ds": 335,
      "Ġhor": 336,
      "Ġher": 337,
      "Ġblue": 338,
      "Ġpizz": 339,
      "ct": 340,
      "Ġpo": 341,
      "Ġot": 342,
      "chen": 343,
      "Ġkitchen": 344,
      "aring": 345,
      "ycle": 346,
      "Ġother": 347,
      "Ġmot": 348,
      "Ġback": 349,
      "Ġskateboard": 350,
      "Ġwood": 351,
      "Ġgreen": 352,
      "age": 353,
      "umb": 354,
      "Ġele": 355,
      "Ġthere": 356,
      "irt": 357,
      "Ġgira": 358,
      "Ġpizza": 359,
      "Ġli": 360,
      "Ġboy": 361,
      "Ġparked": 362,
      "ie": 363,
      "Ġball": 364,
      "Ġlooking": 365,
      "Ġski": 366,
      "Ġmotor": 367,
      "Ġhe": 368,
      "Ġz": 369,
      "ugh": 370,
      "ran": 371,
      "ture": 372,
      "Ġle": 373,
      "Ġben": 374,
      "tle": 375,
      "Ġover": 376,
      "ity": 377,
      "Ġwe": 378,
      "get": 379,
      "Ġbeach": 380,
      "Ġeat": 381,
      "Ġtoile": 382,
      "Ġclock": 383,
      "Ġtoilet": 384,
      "Ġbear": 385,
      "Ġpic": 386,
      "Ġca": 387,
      "Ġcoup": 388,
      "irl": 389,
      "phant": 390,
      "ep": 391,
      "Ġdes": 392,
      "Ġelephant": 393,
      "Ġcouple": 394,
      "Ġgirl": 395,
      "Ġwa": 396,
      "Ġthree": 397,
      "Ġcomp": 398,
      "Ġmen": 399,
      "rel": 400,
      "Ġroad": 401,
      "Ġcon": 402,
      "ame": 403,
      "ent": 404,
      "ild": 405,
      "pp": 406,
      "ane": 407,
      "Ġpicture": 408,
      "led": 409,
      "Ġcity": 410,
      "rella": 411,
      "Ġumb": 412,
      "Ġdis": 413,
      "Ġmotorc": 414,
      "Ġumbrella": 415,
      "Ġshe": 416,
      "Ġflying": 417,
      "cks": 418,
      "lass": 419,
      "Ġtow": 420,
      "Ġwearing": 421,
      "ris": 422,
      "Ġboard": 423,
      "Ġal": 424,
      "dy": 425,
      "Ġsl": 426,
      "Ġlapt": 427,
      "Ġmotorcycle": 428,
      "Ġlaptop": 429,
      "Ġplayer": 430,
      "Ġwind": 431,
      "ous": 432,
      "ee": 433,
      "ub": 434,
      "Ġgame": 435,
      "ine": 436,
      "ill": 437,
      "Ġsever": 438,
      "Ġseveral": 439,
      "ebra": 440,
      "Ġzebra": 441,
      "Ġpas": 442,
      "Ġchild": 443,
      "Ġcomput": 444,
      "ong": 445,
      "Ġfrom": 446,
      "Ġlaying": 447,
      "Ġsits": 448,
      "ld": 449,
      "Ġas": 450,
      "tain": 451,
      "Ġsand": 452,
      "Ġwooden": 453,
      "Ġbench": 454,
      "rown": 455,
      "Ġint": 456,
      "Ġwindow": 457,
      "Ġr": 458,
      "Ġsink": 459,
      "rough": 460,
      "Ġglass": 461,
      "Ġarea": 462,
      "ks": 463,
      "Ġairp": 464,
      "Ġone": 465,
      "Ġtheir": 466,
      "Ġthrough": 467,
      "Ġboat": 468,
      "Ġwall": 469,
      "Ġchair": 470,
      "Ġbrown": 471,
      "pen": 472,
      "Ġtru": 473,
      "Ġaround": 474,
      "Ġhorse": 475,
      "ellow": 476,
      "Ġfris": 477,
      "Ġold": 478,
      "Ġfrisb": 479,
      "Ġyellow": 480,
      "Ġeating": 481,
      "Ġlight": 482,
      "Ġsc": 483,
      "Ġcake": 484,
      "ase": 485,
      "Ġstop": 486,
      "Ġhand": 487,
      "Ġcomputer": 488,
      "Ġta": 489,
      "ull": 490,
      "Ġphone": 491,
      "Ġbir": 492,
      "Ġund": 493,
      "oto": 494,
      "Ġlit": 495,
      "Ġdesk": 496,
      "Ġphoto": 497,
      "Ġfrisbee": 498,
      "Ġgiraffe": 499,
      "Ġde": 500,
      "Ġunder": 501,
      "ort": 502,
      "ice": 503,
      "Ġopen": 504,
      "Ġve": 505,
      "Ġclose": 506,
      "Ġoutside": 507,
      "Ġfo": 508,
      "Ġsp": 509,
      "ery": 510,
      "uit": 511,
      "way": 512,
      "bo": 513,
      "Ġliving": 514,
      "Ġtre": 515,
      "Ġfire": 516,
      "Ġmo": 517,
      "Ġsw": 518,
      "Ġtruck": 519,
      "cc": 520,
      "Ġte": 521,
      "Ġflo": 522,
      "Ġban": 523,
      "ross": 524,
      "Ġlot": 525,
      "Ġsurfboard": 526,
      "'s": 527,
      "ag": 528,
      "Ġbow": 529,
      "Ġcol": 530,
      "Ġbun": 531,
      "vered": 532,
      "Ġdi": 533,
      "Ġtree": 534,
      "Ġbri": 535,
      "Ġtrees": 536,
      "Ġen": 537,
      "ap": 538,
      "Ġcow": 539,
      "les": 540,
      "Ġcoun": 541,
      "Ġeach": 542,
      "ger": 543,
      "ation": 544,
      "Ġcovered": 545,
      "Ġcour": 546,
      "Ġmany": 547,
      "ady": 548,
      "Ġcell": 549,
      "Ġfil": 550,
      "Ġbanan": 551,
      "qu": 552,
      "Ġthis": 553,
      "Ġvery": 554,
      "Ġso": 555,
      "Ġbeh": 556,
      "ses": 557,
      "Ġbehind": 558,
      "Ġsuit": 559,
      "Ġbowl": 560,
      "Ġoran": 561,
      "Ġcourt": 562,
      "Ġoff": 563,
      "pla": 564,
      "ground": 565,
      "Ġfilled": 566,
      "Ġlittle": 567,
      "Ġsky": 568,
      "ves": 569,
      "Ġcut": 570,
      "uch": 571,
      "Ġits": 572,
      "Ġflow": 573,
      "ump": 574,
      "if": 575,
      "Ġshow": 576,
      "Ġfen": 577,
      "gether": 578,
      "ets": 579,
      "Ġtogether": 580,
      "ction": 581,
      "Ġinto": 582,
      "eat": 583,
      "ors": 584,
      "Ġkite": 585,
      "Ġabo": 586,
      "Ġsandw": 587,
      "Ġrack": 588,
      "iew": 589,
      "ly": 590,
      "ich": 591,
      "Ġbi": 592,
      "Ġmoun": 593,
      "ts": 594,
      "Ġrun": 595,
      "Ġairpl": 596,
      "ush": 597,
      "Ġsto": 598,
      "Ġbackground": 599,
      "Ġview": 600,
      "Ġdri": 601,
      "alk": 602,
      "Ġinside": 603,
      "dle": 604,
      "Ġma": 605,
      "Ġbig": 606,
      "Ġshirt": 607,
      "Ġskis": 608,
      "Ġsheep": 609,
      "ped": 610,
      "Ġmir": 611,
      "Ġstands": 612,
      "Ġmirro": 613,
      "Ġapp": 614,
      "ry": 615,
      "Ġdispla": 616,
      "Ġpre": 617,
      "Ġmirror": 618,
      "Ġbunch": 619,
      "walk": 620,
      "dr": 621,
      "Ġgo": 622,
      "Ġcouch": 623,
      "Ġbird": 624,
      "Ġhot": 625,
      "Ġoce": 626,
      "Ġocean": 627,
      "Ġhy": 628,
      "Ġpie": 629,
      "ffic": 630,
      "Ġcounter": 631,
      "do": 632,
      "drant": 633,
      "Ġtraffic": 634,
      "rent": 635,
      "Ġhydrant": 636,
      "Ġveget": 637,
      "ches": 638,
      "Ġmid": 639,
      "Ġswing": 640,
      "Ġfence": 641,
      "Ġted": 642,
      "Ġairplane": 643,
      "Ġteddy": 644,
      "orm": 645,
      "Ġdisplay": 646,
      "Ġsandwich": 647,
      "Ġfloor": 648,
      "uff": 649,
      "Ġorange": 650,
      "Ġche": 651,
      "Ġref": 652,
      "Ġhill": 653,
      "Ġvegetable": 654,
      "Ġwi": 655,
      "Ġwomen": 656,
      "ching": 657,
      "other": 658,
      "Ġhead": 659,
      "ang": 660,
      "fferent": 661,
      "Ġdirt": 662,
      "Ġdifferent": 663,
      "Ġsidewalk": 664,
      "sing": 665,
      "Ġanim": 666,
      "Ġanother": 667,
      "ment": 668,
      "ted": 669,
      "Ġtri": 670,
      "ner": 671,
      "ies": 672,
      "Ġanimal": 673,
      "Ġmountain": 674,
      "Ġstand": 675,
      "Ġwave": 676,
      "ress": 677,
      "Ġfe": 678,
      "Ġplane": 679,
      "Ġtower": 680,
      "iling": 681,
      "Ġtall": 682,
      "mp": 683,
      "Ġjump": 684,
      "Ġflowers": 685,
      "ruit": 686,
      "Ġmet": 687,
      "Ġtracks": 688,
      "Ġparking": 689,
      "ouse": 690,
      "Ġbab": 691,
      "Ġcars": 692,
      "ook": 693,
      "Ġhorses": 694,
      "Ġgiraff": 695,
      "Ġfruit": 696,
      "Ġbro": 697,
      "Ġvase": 698,
      "Ġgiraffes": 699,
      "etting": 700,
      "Ġplat": 701,
      "Ġhit": 702,
      "Ġalong": 703,
      "Ġsa": 704,
      "Ġim": 705,
      "ace": 706,
      "Ġbaby": 707,
      "Ġracket": 708,
      "Ġday": 709,
      "ip": 710,
      "Ġar": 711,
      "Ġground": 712,
      "Ġtie": 713,
      "Ġsun": 714,
      "Ġvegetables": 715,
      "Ġbot": 716,
      "ugg": 717,
      "ren": 718,
      "Ġus": 719,
      "Ġrid": 720,
      "Ġgrassy": 721,
      "Ġgraz": 722,
      "vel": 723,
      "Ġbeing": 724,
      "Ġfull": 725,
      "Ġzebras": 726,
      "ket": 727,
      "Ġsnowboard": 728,
      "te": 729,
      "Ġelephants": 730,
      "Ġhang": 731,
      "Ġstuff": 732,
      "Ġrest": 733,
      "Ġstation": 734,
      "Ġgu": 735,
      "ey": 736,
      "Ġbananas": 737,
      "Ġdr": 738,
      "Ġslop": 739,
      "uring": 740,
      "ari": 741,
      "Ġmiddle": 742,
      "hes": 743,
      "Ġun": 744,
      "ated": 745,
      "hing": 746,
      "kes": 747,
      "Ġha": 748,
      "ven": 749,
      "Ġcl": 750,
      "ick": 751,
      "Ġad": 752,
      "Ġcup": 753,
      "Ġdress": 754,
      "Ġready": 755,
      "Ġimage": 756,
      "rying": 757,
      "Ġpro": 758,
      "ac": 759,
      "igh": 760,
      "Ġtaking": 761,
      "Ġfour": 762,
      "Ġvari": 763,
      "urn": 764,
      "Ġcam": 765,
      "Ġbox": 766,
      "Ġsigns": 767,
      "Ġcor": 768,
      "Ġhat": 769,
      "Ġcrow": 770,
      "Ġbes": 771,
      "ator": 772,
      "Ġbike": 773,
      "Ġthem": 774,
      "ult": 775,
      "Ġlo": 776,
      "Ġdriving": 777,
      "Ġstuffed": 778,
      "Ġslope": 779,
      "Ġcross": 780,
      "oli": 781,
      "rol": 782,
      "Ġcrowd": 783,
      "ade": 784,
      "Ġac": 785,
      "Ġlong": 786,
      "ched": 787,
      "dge": 788,
      "ler": 789,
      "Ġpiece": 790,
      "Ġabove": 791,
      "Ġpass": 792,
      "Ġwine": 793,
      "Ġbrocc": 794,
      "Ġlugg": 795,
      "Ġguy": 796,
      "Ġwor": 797,
      "Ġbroccoli": 798,
      "Ġluggage": 799,
      "Ġcont": 800,
      "Ġem": 801,
      "Ġgrazing": 802,
      "Ġacross": 803,
      "Ġcows": 804,
      "Ġrefri": 805,
      "Ġbeside": 806,
      "ess": 807,
      "Ġprep": 808,
      "uts": 809,
      "Ġskiing": 810,
      "Ġkn": 811,
      "Ġrefriger": 812,
      "Ġskate": 813,
      "Ġkid": 814,
      "Ġtravel": 815,
      "Ġsnowy": 816,
      "Ġkey": 817,
      "Ġfri": 818,
      "Ġwii": 819,
      "Ġcamer": 820,
      "Ġdoor": 821,
      "Ġhanging": 822,
      "ms": 823,
      "Ġduring": 824,
      "Ġrefrigerator": 825,
      "Ġbic": 826,
      "cor": 827,
      "iting": 828,
      "Ġdon": 829,
      "Ġtele": 830,
      "Ġcolor": 831,
      "Ġglasses": 832,
      "Ġholds": 833,
      "Ġcle": 834,
      "der": 835,
      "Ġcamera": 836,
      "Ġbag": 837,
      "Ġchildren": 838,
      "res": 839,
      "Ġpink": 840,
      "Ġdoub": 841,
      "Ġdoing": 842,
      "Ġtal": 843,
      "ust": 844,
      "Ġpast": 845,
      "Ġsho": 846,
      "Ġherd": 847,
      "Ġrem": 848,
      "ning": 849,
      "ak": 850,
      "Ġpair": 851,
      "Ġbuildings": 852,
      "Ġpole": 853,
      "Ġkeyboard": 854,
      "Ġpassen": 855,
      "Ġpap": 856,
      "ese": 857,
      "Ġrac": 858,
      "Ġoven": 859,
      "Ġdecor": 860,
      "Ġdouble": 861,
      "Ġempt": 862,
      "Ġbicycle": 863,
      "ful": 864,
      "Ġser": 865,
      "Ġcorner": 866,
      "Ġempty": 867,
      "vis": 868,
      "Ġper": 869,
      "Ġhigh": 870,
      "Ġgoing": 871,
      "Ġcontrol": 872,
      "Ġtrack": 873,
      "Ġcab": 874,
      "Ġcutting": 875,
      "Ġwalk": 876,
      "Ġwho": 877,
      "Ġwatching": 878,
      "Ġmar": 879,
      "Ġumbrellas": 880,
      "Ġpot": 881,
      "Ġlooks": 882,
      "Ġstove": 883,
      "Ġkites": 884,
      "Ġtrick": 885,
      "vision": 886,
      "Ġtelevision": 887,
      "Ġme": 888,
      "rush": 889,
      "Ġbre": 890,
      "Ġjumping": 891,
      "Ġbottle": 892,
      "Ġsmiling": 893,
      "Ġchairs": 894,
      "Ġdogs": 895,
      "Ġcur": 896,
      "Ġsocc": 897,
      "form": 898,
      "Ġsoccer": 899,
      "Ġboats": 900,
      "Ġdin": 901,
      "Ġtalking": 902,
      "Ġag": 903,
      "Ġpit": 904,
      "Ġposing": 905,
      "Ġvide": 906,
      "Ġvideo": 907,
      "Ġtv": 908,
      "ten": 909,
      "Ġtraveling": 910,
      "Ġsuitc": 911,
      "ght": 912,
      "Ġste": 913,
      "ans": 914,
      "Ġairport": 915,
      "Ġcolorful": 916,
      "Ġswinging": 917,
      "Ġset": 918,
      "Ġremot": 919,
      "Ġtopped": 920,
      "Ġanimals": 921,
      "Ġvarious": 922,
      "Ġbirds": 923,
      "Ġall": 924,
      "Ġgetting": 925,
      "Ġusing": 926,
      "ces": 927,
      "Ġcontain": 928,
      "Ġlady": 929,
      "Ġpain": 930,
      "Ġmon": 931,
      "Ġbody": 932,
      "Ġcabin": 933,
      "Ġnight": 934,
      "Ġpat": 935,
      "Ġplates": 936,
      "Ġpaper": 937,
      "ping": 938,
      "pe": 939,
      "Ġhome": 940,
      "Ġagain": 941,
      "Ġfore": 942,
      "Ġagainst": 943,
      "Ġrail": 944,
      "oth": 945,
      "quet": 946,
      "Ġbar": 947,
      "ft": 948,
      "Ġbrick": 949,
      "leep": 950,
      "Ġthrow": 951,
      "Ġbanana": 952,
      "Ġcoffe": 953,
      "ast": 954,
      "Ġmeat": 955,
      "Ġdeck": 956,
      "Ġsom": 957,
      "arding": 958,
      "Ġriver": 959,
      "Ġcoffee": 960,
      "Ġjet": 961,
      "ud": 962,
      "Ġite": 963,
      "Ġcheese": 964,
      "gs": 965,
      "Ġhim": 966,
      "Ġcarrying": 967,
      "Ġlea": 968,
      "cher": 969,
      "Ġlots": 970,
      "Ġpol": 971,
      "Ġmotorcycles": 972,
      "aur": 973,
      "Ġcan": 974,
      "Ġsomeone": 975,
      "Ġtray": 976,
      "ian": 977,
      "Ġsomet": 978,
      "Ġpull": 979,
      "Ġsomething": 980,
      "Ġhouse": 981,
      "Ġbedroom": 982,
      "aurant": 983,
      "Ġrestaurant": 984,
      "Ġbears": 985,
      "Ġdrink": 986,
      "Ġwaiting": 987,
      "Ġlights": 988,
      "iss": 989,
      "ored": 990,
      "Ġlin": 991,
      "Ġrow": 992,
      "Ġplayers": 993,
      "Ġshel": 994,
      "Ġor": 995,
      "ool": 996,
      "Ġremote": 997,
      "Ġboo": 998,
      "uth": 999,
      "Ġmetal": 1000,
      "Ġshower": 1001,
      "clo": 1002,
      "est": 1003,
      "Ġplant": 1004,
      "alf": 1005,
      "ato": 1006,
      "Ġskateboarder": 1007,
      "Ġface": 1008,
      "ced": 1009,
      "Ġsleep": 1010,
      "Ġrunway": 1011,
      "Ġracquet": 1012,
      "Ġoutdo": 1013,
      "Ġabout": 1014,
      "Ġtile": 1015,
      "Ġcarro": 1016,
      "Ġskier": 1017,
      "Ġitems": 1018,
      "Ġramp": 1019,
      "clos": 1020,
      "Ġtoy": 1021,
      "Ġrunning": 1022,
      "ark": 1023,
      "ave": 1024,
      "Ġres": 1025,
      "erse": 1026,
      "Ġdough": 1027,
      "Ġenclos": 1028,
      "Ġslic": 1029,
      "Ġbook": 1030,
      "Ġsurfer": 1031,
      "Ġbusy": 1032,
      "Ġclou": 1033,
      "Ġmic": 1034,
      "Ġpile": 1035,
      "Ġline": 1036,
      "ial": 1037,
      "ases": 1038,
      "Ġinterse": 1039,
      "Ġatt": 1040,
      "Ġhands": 1041,
      "Ġrain": 1042,
      "gra": 1043,
      "Ġscreen": 1044,
      "Ġpur": 1045,
      "Ġhel": 1046,
      "Ġpassenger": 1047,
      "Ġintersection": 1048,
      "Ġlying": 1049,
      "Ġsil": 1050,
      "are": 1051,
      "Ġmouth": 1052,
      "Ġce": 1053,
      "ty": 1054,
      "Ġdressed": 1055,
      "Ġmonit": 1056,
      "Ġmale": 1057,
      "Ġdoughn": 1058,
      "Ġtoward": 1059,
      "Ġseat": 1060,
      "Ġam": 1061,
      "arm": 1062,
      "Ġhalf": 1063,
      "Ġsurfing": 1064,
      "Ġlike": 1065,
      "Ġstore": 1066,
      "Ġgre": 1067,
      "Ġwhe": 1068,
      "Ġphotogra": 1069,
      "Ġnumb": 1070,
      "Ġrock": 1071,
      "Ġpan": 1072,
      "Ġsuitcase": 1073,
      "we": 1074,
      "Ġno": 1075,
      "Ġslice": 1076,
      "Ġtub": 1077,
      "ple": 1078,
      "ges": 1079,
      "raw": 1080,
      "Ġshown": 1081,
      "Ġdecker": 1082,
      "Ġbatter": 1083,
      "Ġbrush": 1084,
      "Ġdark": 1085,
      "ones": 1086,
      "Ġjack": 1087,
      "ife": 1088,
      "Ġpreparing": 1089,
      "Ġsciss": 1090,
      "ive": 1091,
      "uce": 1092,
      "phone": 1093,
      "Ġrides": 1094,
      "Ġmade": 1095,
      "hic": 1096,
      "Ġlook": 1097,
      "Ġgray": 1098,
      "Ġpulling": 1099,
      "Ġvehic": 1100,
      "Ġsurround": 1101,
      "to": 1102,
      "Ġty": 1103,
      "Ġbridge": 1104,
      "Ġsilver": 1105,
      "Ġmat": 1106,
      "Ġscissors": 1107,
      "Ġsleeping": 1108,
      "cl": 1109,
      "Ġzoo": 1110,
      "art": 1111,
      "Ġdonuts": 1112,
      "Ġway": 1113,
      "ading": 1114,
      "Ġtooth": 1115,
      "Ġpost": 1116,
      "Ġmicrow": 1117,
      "col": 1118,
      "ny": 1119,
      "Ġenclosure": 1120,
      "Ġnumber": 1121,
      "ating": 1122,
      "Ġcontroller": 1123,
      "Ġkids": 1124,
      "iz": 1125,
      "Ġbet": 1126,
      "Ġhair": 1127,
      "ars": 1128,
      "sh": 1129,
      "Ġsurrounded": 1130,
      "Ġknife": 1131,
      "ather": 1132,
      "Ġmult": 1133,
      "ween": 1134,
      "Ġshowing": 1135,
      "Ġforest": 1136,
      "Ġbetween": 1137,
      "ond": 1138,
      "Ġmicrowave": 1139,
      "ron": 1140,
      "aning": 1141,
      "gg": 1142,
      "Ġcarrots": 1143,
      "Ġcolored": 1144,
      "Ġbright": 1145,
      "Ġadult": 1146,
      "Ġjacket": 1147,
      "Ġmeal": 1148,
      "Ġphotograph": 1149,
      "Ġbread": 1150,
      "ale": 1151,
      "Ġdecorated": 1152,
      "ooking": 1153,
      "Ġsal": 1154,
      "Ġlake": 1155,
      "Ġfew": 1156,
      "Ġpill": 1157,
      "eath": 1158,
      "iform": 1159,
      "Ġuniform": 1160,
      "ect": 1161,
      "Ġmouse": 1162,
      "Ġlined": 1163,
      "Ġcabinets": 1164,
      "ash": 1165,
      "elf": 1166,
      "Ġboys": 1167,
      "ll": 1168,
      "Ġbuses": 1169,
      "ved": 1170,
      "Ġcount": 1171,
      "pes": 1172,
      "Ġscen": 1173,
      "Ġblan": 1174,
      "Ġwalks": 1175,
      "Ġolder": 1176,
      "Ġskiers": 1177,
      "Ġstat": 1178,
      "ached": 1179,
      "anes": 1180,
      "Ġfurn": 1181,
      "Ġpurple": 1182,
      "Ġcand": 1183,
      "iture": 1184,
      "Ġbran": 1185,
      "Ġfurniture": 1186,
      "ries": 1187,
      "Ġoranges": 1188,
      "ime": 1189,
      "Ġgirls": 1190,
      "Ġex": 1191,
      "Ġgrey": 1192,
      "Ġ\"": 1193,
      "Ġbooks": 1194,
      "Ġdock": 1195,
      "Ġstick": 1196,
      "Ġoutdoor": 1197,
      "Ġstri": 1198,
      "lic": 1199,
      "Ġcho": 1200,
      "ser": 1201,
      "Ġho": 1202,
      "Ġdish": 1203,
      "Ġshop": 1204,
      "Ġpick": 1205,
      "Ġhave": 1206,
      "Ġwaves": 1207,
      "Ġpillow": 1208,
      "Ġcloudy": 1209,
      "Ġcomm": 1210,
      "Ġcoming": 1211,
      "Ġdisplayed": 1212,
      "atoes": 1213,
      "Ġattached": 1214,
      "Ġfork": 1215,
      "Ġincl": 1216,
      "Ġfla": 1217,
      "old": 1218,
      "pped": 1219,
      "Ġthrowing": 1220,
      "Ġchocol": 1221,
      "Ġmonitor": 1222,
      "day": 1223,
      "Ġwindows": 1224,
      "Ġeng": 1225,
      "Ġchocolate": 1226,
      "Ġleaning": 1227,
      "Ġmaking": 1228,
      "Ġfem": 1229,
      "Ġonto": 1230,
      "Ġob": 1231,
      "Ġclean": 1232,
      "ings": 1233,
      "oon": 1234,
      "met": 1235,
      "ily": 1236,
      "Ġcrossing": 1237,
      "inking": 1238,
      "Ġass": 1239,
      "Ġsalad": 1240,
      "Ġshelf": 1241,
      "Ġscene": 1242,
      "Ġdining": 1243,
      "ish": 1244,
      "Ġelect": 1245,
      "Ġperform": 1246,
      "Ġcook": 1247,
      "Ġstone": 1248,
      "Ġpainted": 1249,
      "ance": 1250,
      "Ġcats": 1251,
      "Ġrocks": 1252,
      "ble": 1253,
      "Ġbirt": 1254,
      "Ġbirth": 1255,
      "Ġpen": 1256,
      "Ġdrinking": 1257,
      "de": 1258,
      "Ġmarket": 1259,
      "by": 1260,
      "Ġmeter": 1261,
      "Ġseen": 1262,
      "Ġbirthday": 1263,
      "Ġlush": 1264,
      "Ġhitting": 1265,
      "Ġed": 1266,
      "Ġapples": 1267,
      "Ġwalls": 1268,
      "Ġpub": 1269,
      "Ġbea": 1270,
      "Ġbasket": 1271,
      "Ġturn": 1272,
      "els": 1273,
      "Ġwork": 1274,
      "Ġwatch": 1275,
      "Ġoffice": 1276,
      "Ġtowards": 1277,
      "Ġlamp": 1278,
      "Ġresting": 1279,
      "Ġfemale": 1280,
      "int": 1281,
      "ken": 1282,
      "Ġpublic": 1283,
      "Ġflower": 1284,
      "Ġfruits": 1285,
      "Ġclear": 1286,
      "Ġpa": 1287,
      "Ġcountry": 1288,
      "Ġapple": 1289,
      "Ġbeaut": 1290,
      "Ġplast": 1291,
      "Ġsunny": 1292,
      "ents": 1293,
      "Ġtables": 1294,
      "eth": 1295,
      "Ġlay": 1296,
      "Ġsetting": 1297,
      "ary": 1298,
      "Ġclot": 1299,
      "ire": 1300,
      "Ġblanket": 1301,
      "aching": 1302,
      "Ġfries": 1303,
      "Ġbeautif": 1304,
      "Ġplastic": 1305,
      "jo": 1306,
      "oot": 1307,
      "Ġpictures": 1308,
      "Ġcatch": 1309,
      "Ġstopped": 1310,
      "Ġleaves": 1311,
      "Ġbeen": 1312,
      "Ġsurfboards": 1313,
      "Ġedge": 1314,
      "Ġnot": 1315,
      "Ġshot": 1316,
      "Ġcatcher": 1317,
      "Ġmoving": 1318,
      "less": 1319,
      "Ġtom": 1320,
      "Ġpart": 1321,
      "Ġteeth": 1322,
      "Ġenjo": 1323,
      "sp": 1324,
      "Ġbikes": 1325,
      "Ġmountains": 1326,
      "Ġhelmet": 1327,
      "Ġassort": 1328,
      "Ġsqu": 1329,
      "Ġpolice": 1330,
      "Ġbeautiful": 1331,
      "Ġstack": 1332,
      "Ġstatue": 1333,
      "Ġplatform": 1334,
      "resh": 1335,
      "Ġpath": 1336,
      "Ġworking": 1337,
      "Ġshort": 1338,
      "Ġsnowboarder": 1339,
      "Ġfresh": 1340,
      "Ġtoothb": 1341,
      "lection": 1342,
      "Ġsmile": 1343,
      "Ġride": 1344,
      "Ġundern": 1345,
      "Ġur": 1346,
      "Ġtrying": 1347,
      "Ġsub": 1348,
      "Ġslices": 1349,
      "Ġunderneath": 1350,
      "Ġdonut": 1351,
      "Ġbranch": 1352,
      "Ġyard": 1353,
      "Ġcre": 1354,
      "ety": 1355,
      "Ġbel": 1356,
      "Ġprepa": 1357,
      "Ġdist": 1358,
      "Ġcart": 1359,
      "Ġtopping": 1360,
      "Ġbase": 1361,
      "tered": 1362,
      "Ġaf": 1363,
      "ear": 1364,
      "Ġlap": 1365,
      "Ġtime": 1366,
      "hed": 1367,
      "Ġshap": 1368,
      "hered": 1369,
      "Ġsing": 1370,
      "Ġbut": 1371,
      "ally": 1372,
      "Ġwild": 1373,
      "Ġfam": 1374,
      "len": 1375,
      "Ġpieces": 1376,
      "Ġcarri": 1377,
      "Ġcomputers": 1378,
      "Ġhaving": 1379,
      "Ġvan": 1380,
      "Ġplaced": 1381,
      "Ġwet": 1382,
      "Ġnice": 1383,
      "oarding": 1384,
      "Ġfac": 1385,
      "Ġmil": 1386,
      "Ġshows": 1387,
      "Ġperched": 1388,
      "Ġpitcher": 1389,
      "inal": 1390,
      "Ġdire": 1391,
      "Ġcellphone": 1392,
      "Ġcase": 1393,
      "Ġskateboarding": 1394,
      "Ġnew": 1395,
      "Ġshore": 1396,
      "run": 1397,
      "Ġpitch": 1398,
      "Ġdraw": 1399,
      "Ġgar": 1400,
      "wn": 1401,
      "ca": 1402,
      "Ġpepp": 1403,
      "Ġpassing": 1404,
      "Ġappl": 1405,
      "ling": 1406,
      "Ġspe": 1407,
      "Ġmoder": 1408,
      "Ġcooking": 1409,
      "gers": 1410,
      "Ġsandy": 1411,
      "Ġsurface": 1412,
      "Ġhotel": 1413,
      "Ġput": 1414,
      "oll": 1415,
      "Ġeaten": 1416,
      "Ġdinner": 1417,
      "Ġmodern": 1418,
      "Ġthey": 1419,
      "Ġvehicle": 1420,
      "top": 1421,
      "Ġdry": 1422,
      "Ġapplian": 1423,
      "Ġfamily": 1424,
      "ist": 1425,
      "Ġarm": 1426,
      "Ġvases": 1427,
      "Ġneck": 1428,
      "Ġland": 1429,
      "Ġbeer": 1430,
      "ix": 1431,
      "Ġtan": 1432,
      "ric": 1433,
      "Ġdoughnut": 1434,
      "Ġtrains": 1435,
      "Ġnin": 1436,
      "Ġtypes": 1437,
      "ition": 1438,
      "Ġpizzas": 1439,
      "Ġtown": 1440,
      "Ġboards": 1441,
      "Ġbrushing": 1442,
      "Ġey": 1443,
      "Ġmultip": 1444,
      "Ġconc": 1445,
      "Ġlaptops": 1446,
      "Ġind": 1447,
      "Ġmultiple": 1448,
      "iti": 1449,
      "Ġchick": 1450,
      "ines": 1451,
      "Ġjust": 1452,
      "bor": 1453,
      "Ġtiled": 1454,
      "Ġfeat": 1455,
      "Ġsty": 1456,
      "Ġsauce": 1457,
      "ats": 1458,
      "Ġninten": 1459,
      "Ġreading": 1460,
      "Ġnintendo": 1461,
      "Ġothers": 1462,
      "Ġgraff": 1463,
      "Ġbenches": 1464,
      "Ġroll": 1465,
      "Ġsingle": 1466,
      "Ġengine": 1467,
      "Ġtrun": 1468,
      "Ġwatches": 1469,
      "Ġtoppings": 1470,
      "ley": 1471,
      "Ġgat": 1472,
      "Ġdoughnuts": 1473,
      "eeding": 1474,
      "Ġwas": 1475,
      "Ġped": 1476,
      "ides": 1477,
      "Ġcurb": 1478,
      "Ġchicken": 1479,
      "Ġplants": 1480,
      "Ġvariety": 1481,
      "th": 1482,
      "Ġgri": 1483,
      "Ġkind": 1484,
      "ject": 1485,
      "Ġgraffiti": 1486,
      "bb": 1487,
      "Ġtake": 1488,
      "Ġpret": 1489,
      "Ġequ": 1490,
      "Ġenjoying": 1491,
      "Ġmounted": 1492,
      "Ġpack": 1493,
      "ized": 1494,
      "que": 1495,
      "Ġsail": 1496,
      "ming": 1497,
      "ures": 1498,
      "Ġflat": 1499,
      "Ġbowls": 1500,
      "Ġtrucks": 1501,
      "Ġguys": 1502,
      "Ġplace": 1503,
      "Ġleft": 1504,
      "htub": 1505,
      "Ġsee": 1506,
      "Ġwoods": 1507,
      "Ġappliances": 1508,
      "Ġbathtub": 1509,
      "Ġdistance": 1510,
      "Ġafter": 1511,
      "Ġpassengers": 1512,
      "Ġpad": 1513,
      "armac": 1514,
      "Ġsof": 1515,
      "Ġgathered": 1516,
      "Ġphones": 1517,
      "ely": 1518,
      "Ġhotdo": 1519,
      "Ġpretty": 1520,
      "Ġtarmac": 1521,
      "Ġgear": 1522,
      "cial": 1523,
      "Ġshoes": 1524,
      "Ġperforming": 1525,
      "os": 1526,
      "Ġdesser": 1527,
      "Ġend": 1528,
      "Ġcute": 1529,
      "Ġswim": 1530,
      "vers": 1531,
      "road": 1532,
      "Ġrice": 1533,
      "Ġtricks": 1534,
      "Ġwell": 1535,
      "Ġcontaining": 1536,
      "Ġbal": 1537,
      "Ġfenced": 1538,
      "Ġpedest": 1539,
      "Ġarran": 1540,
      "Ġfly": 1541,
      "Ġcandles": 1542,
      "Ġtran": 1543,
      "ages": 1544,
      "Ġcurtain": 1545,
      "ins": 1546,
      "Ġbottles": 1547,
      "Ġglo": 1548,
      "place": 1549,
      "Ġteam": 1550,
      "Ġ.": 1551,
      "Ġflies": 1552,
      "Ġpasture": 1553,
      "Ġcarriage": 1554,
      "Ġstair": 1555,
      "Ġbreak": 1556,
      "Ġi": 1557,
      "Ġspoon": 1558,
      "Ġtoothbrush": 1559,
      "Ġsch": 1560,
      "Ġdirty": 1561,
      "Ġclut": 1562,
      "Ġrailroad": 1563,
      "Ġfive": 1564,
      "ronic": 1565,
      "Ġfeeding": 1566,
      "Ġcattle": 1567,
      "Ġdu": 1568,
      "Ġschool": 1569,
      "man": 1570,
      "rete": 1571,
      "Ġright": 1572,
      "Ġbags": 1573,
      "Ġconcrete": 1574,
      "Ġmatch": 1575,
      "Ġfoot": 1576,
      "Ġpoles": 1577,
      "Ġbelow": 1578,
      "Ġpoin": 1579,
      "Ġelectronic": 1580,
      "enter": 1581,
      "uding": 1582,
      "head": 1583,
      "ram": 1584,
      "Ġonion": 1585,
      "Ġcenter": 1586,
      "Ġdrinks": 1587,
      "Ġincluding": 1588,
      "pack": 1589,
      "Ġsteel": 1590,
      "anc": 1591,
      "iding": 1592,
      "Ġtakes": 1593,
      "Ġfireplace": 1594,
      "light": 1595,
      "Ġpillows": 1596,
      "Ġhu": 1597,
      "Ġpul": 1598,
      "Ġstep": 1599,
      "Ġsofa": 1600,
      "Ġclos": 1601,
      "Ġpolar": 1602,
      "intage": 1603,
      "Ġvintage": 1604,
      "ession": 1605,
      "Ġstriped": 1606,
      "ips": 1607,
      "Ġamong": 1608,
      "ini": 1609,
      "ads": 1610,
      "ball": 1611,
      "upp": 1612,
      "Ġsandwic": 1613,
      "fe": 1614,
      "Ġcrowded": 1615,
      "Ġwr": 1616,
      "Ġpulled": 1617,
      "Ġbackpack": 1618,
      "uches": 1619,
      "Ġti": 1620,
      "Ġpainting": 1621,
      "Ġsandwiches": 1622,
      "Ġboxes": 1623,
      "Ġnearby": 1624,
      "Ġloc": 1625,
      "Ġalone": 1626,
      "Ġdirection": 1627,
      "Ġfridge": 1628,
      "Ġhuge": 1629,
      "Ġap": 1630,
      "Ġlet": 1631,
      "Ġprof": 1632,
      "Ġcatching": 1633,
      "Ġobject": 1634,
      "Ġchur": 1635,
      "Ġbeds": 1636,
      "ames": 1637,
      "Ġequip": 1638,
      "Ġqu": 1639,
      "Ġsinks": 1640,
      "Ġgold": 1641,
      "ged": 1642,
      "Ġreaching": 1643,
      "Ġcontainer": 1644,
      "Ġchurch": 1645,
      "Ġequipment": 1646,
      "Ġwra": 1647,
      "Ġsliced": 1648,
      "Ġvehicles": 1649,
      "Ġmess": 1650,
      "ered": 1651,
      "Ġplanes": 1652,
      "Ġcabinet": 1653,
      "Ġart": 1654,
      "Ġskateboards": 1655,
      "rist": 1656,
      "self": 1657,
      "Ġgiant": 1658,
      "Ġboth": 1659,
      "Ġcream": 1660,
      "Ġshaped": 1661,
      "Ġtrunk": 1662,
      "ural": 1663,
      "Ġsuitcases": 1664,
      "Ġwed": 1665,
      "ens": 1666,
      "Ġfeet": 1667,
      "lin": 1668,
      "Ġdel": 1669,
      "Ġwhere": 1670,
      "Ġdeser": 1671,
      "Ġserved": 1672,
      "Ġstall": 1673,
      "Ġbicycles": 1674,
      "Ġround": 1675,
      "Ġwait": 1676,
      "Ġfloating": 1677,
      "Ġkne": 1678,
      "Ġplays": 1679,
      "anding": 1680,
      "stru": 1681,
      "Ġtour": 1682,
      "Ġbushes": 1683,
      "ical": 1684,
      "Ġserve": 1685,
      "Ġprofession": 1686,
      "aking": 1687,
      "Ġposes": 1688,
      "ber": 1689,
      "Ġasian": 1690,
      "Ġputting": 1691,
      "Ġatop": 1692,
      "Ġtrail": 1693,
      "Ġlow": 1694,
      "alm": 1695,
      "Ġsurfers": 1696,
      "Ġtowel": 1697,
      "Ġclothes": 1698,
      "Ġfa": 1699,
      "Ġserving": 1700,
      "Ġtaken": 1701,
      "Ġsmiles": 1702,
      "Ġhay": 1703,
      "Ġtomatoes": 1704,
      "Ġsticking": 1705,
      "Ġprofessional": 1706,
      "wing": 1707,
      "eling": 1708,
      "Ġpedestri": 1709,
      "iv": 1710,
      "Ġaway": 1711,
      "Ġlegs": 1712,
      "Ġwire": 1713,
      "Ġblo": 1714,
      "Ġprepares": 1715,
      "ti": 1716,
      "Ġspace": 1717,
      "ore": 1718,
      "ycl": 1719,
      "Ġdishes": 1720,
      "Ġcover": 1721,
      "Ġpotatoes": 1722,
      "Ġstyle": 1723,
      "Ġblen": 1724,
      "land": 1725,
      "Ġmas": 1726,
      "Ġstaring": 1727,
      "Ġrug": 1728,
      "Ġlays": 1729,
      "rus": 1730,
      "Ġcommer": 1731,
      "Ġstain": 1732,
      "elling": 1733,
      "Ġbak": 1734,
      "ons": 1735,
      "Ġmother": 1736,
      "Ġcheck": 1737,
      "glass": 1738,
      "Ġsmo": 1739,
      "ident": 1740,
      "Ġairplanes": 1741,
      "Ġcommercial": 1742,
      "iness": 1743,
      "Ġpos": 1744,
      "Ġfoods": 1745,
      "bs": 1746,
      "Ġdev": 1747,
      "Ġfrien": 1748,
      "mas": 1749,
      "Ġreflection": 1750,
      "Ġpose": 1751,
      "Ġbusiness": 1752,
      "Ġwhich": 1753,
      "ashion": 1754,
      "let": 1755,
      "Ġcra": 1756,
      "fast": 1757,
      "owing": 1758,
      "sc": 1759,
      "Ġoffic": 1760,
      "Ġcement": 1761,
      "Ġbreakfast": 1762,
      "Ġchrist": 1763,
      "Ġwin": 1764,
      "Ġsubway": 1765,
      "Ġform": 1766,
      "Ġshorts": 1767,
      "glasses": 1768,
      "Ġpool": 1769,
      "ise": 1770,
      "Ġstraw": 1771,
      "Ġchristmas": 1772,
      "iny": 1773,
      "Ġsquare": 1774,
      "Ġsoup": 1775,
      "rench": 1776,
      "Ġstacked": 1777,
      "Ġdesign": 1778,
      "Ġcooked": 1779,
      "Ġfarm": 1780,
      "vent": 1781,
      "Ġump": 1782,
      "ward": 1783,
      "boarding": 1784,
      "Ġlone": 1785,
      "Ġflag": 1786,
      "Ġhar": 1787,
      "Ġsame": 1788,
      "Ġlun": 1789,
      "Ġkitten": 1790,
      "aded": 1791,
      "Ġdessert": 1792,
      "ract": 1793,
      "urry": 1794,
      "Ġtrash": 1795,
      "Ġurinal": 1796,
      "Ġfrench": 1797,
      "Ġroo": 1798,
      "ban": 1799,
      "out": 1800,
      "Ġpow": 1801,
      "ular": 1802,
      "Ġseated": 1803,
      "co": 1804,
      "ils": 1805,
      "Ġswimming": 1806,
      "Ġhighway": 1807,
      "Ġcluttered": 1808,
      "io": 1809,
      "Ġgames": 1810,
      "Ġwedding": 1811,
      "Ġham": 1812,
      "per": 1813,
      "Ġgard": 1814,
      "Ġdocked": 1815,
      "Ġoutf": 1816,
      "Ġumpire": 1817,
      "Ġswings": 1818,
      "ists": 1819,
      "Ġget": 1820,
      "Ġoutdoors": 1821,
      "Ġblender": 1822,
      "Ġgarden": 1823,
      "ults": 1824,
      "tom": 1825,
      "Ġfun": 1826,
      "Ġcouches": 1827,
      "Ġclocks": 1828,
      "Ġhard": 1829,
      "artment": 1830,
      "Ġpepper": 1831,
      "Ġoverl": 1832,
      "kets": 1833,
      "Ġadults": 1834,
      "Ġmach": 1835,
      "Ġsunglasses": 1836,
      "ual": 1837,
      "Ġcro": 1838,
      "Ġboarding": 1839,
      "ants": 1840,
      "Ġhotdog": 1841,
      "Ġassortment": 1842,
      "struction": 1843,
      "itary": 1844,
      "Ġcontrollers": 1845,
      "Ġret": 1846,
      "Ġter": 1847,
      "Ġgather": 1848,
      "icing": 1849,
      "ium": 1850,
      "Ġsay": 1851,
      "Ġgr": 1852,
      "Ġdesktop": 1853,
      "liner": 1854,
      "Ġice": 1855,
      "ded": 1856,
      "Ġent": 1857,
      "Ġdrives": 1858,
      "Ġlad": 1859,
      "Ġear": 1860,
      "Ġrestroom": 1861,
      "made": 1862,
      "Ġmus": 1863,
      "Ġkick": 1864,
      "Ġfashion": 1865,
      "Ġcla": 1866,
      "Ġeg": 1867,
      "Ġyo": 1868,
      "Ġflock": 1869,
      "Ġprod": 1870,
      "Ġdoors": 1871,
      "pping": 1872,
      "ddle": 1873,
      "Ġledge": 1874,
      "Ġhillside": 1875,
      "oni": 1876,
      "Ġfish": 1877,
      "Ġceiling": 1878,
      "Ġinter": 1879,
      "Ġshelves": 1880,
      "Ġfacing": 1881,
      "Ġsignal": 1882,
      "Ġwooded": 1883,
      "Ġrocky": 1884,
      "iler": 1885,
      "Ġjumps": 1886,
      "Ġext": 1887,
      "Ġmilitary": 1888,
      "Ġdoes": 1889,
      "Ġeyes": 1890,
      "Ġstainless": 1891,
      "Ġcr": 1892,
      "Ġskies": 1893,
      "Ġonions": 1894,
      "Ġlawn": 1895,
      "Ġrace": 1896,
      "Ġappro": 1897,
      "nic": 1898,
      "Ġtoddle": 1899,
      "Ġsea": 1900,
      "Ġut": 1901,
      "Ġfall": 1902,
      "Ġfram": 1903,
      "Ġtoddler": 1904,
      "Ġdrawn": 1905,
      "Ġstairs": 1906,
      "Ġdesert": 1907,
      "go": 1908,
      "Ġacc": 1909,
      "ned": 1910,
      "Ġcompet": 1911,
      "Ġthings": 1912,
      "Ġassorted": 1913,
      "vy": 1914,
      "Ġcups": 1915,
      "Ġgate": 1916,
      "Ġchop": 1917,
      "Ġeats": 1918,
      "Ġfree": 1919,
      "Ġevent": 1920,
      "br": 1921,
      "vert": 1922,
      "Ġcloseup": 1923,
      "Ġpointing": 1924,
      "fore": 1925,
      "read": 1926,
      "Ġeggs": 1927,
      "ious": 1928,
      "Ġdoll": 1929,
      "Ġprop": 1930,
      "Ġinclud": 1931,
      "Ġcard": 1932,
      "Ġvegg": 1933,
      "Ġappe": 1934,
      "Ġadvert": 1935,
      "Ġhold": 1936,
      "Ġclouds": 1937,
      "Ġbefore": 1938,
      "arrow": 1939,
      "irc": 1940,
      "Ġmake": 1941,
      "Ġmonitors": 1942,
      "Ġneat": 1943,
      "Ġsteps": 1944,
      "Ġlunch": 1945,
      "ns": 1946,
      "Ġcost": 1947,
      "set": 1948,
      "Ġatte": 1949,
      "Ġroof": 1950,
      "adow": 1951,
      "ations": 1952,
      "Ġoutfit": 1953,
      "Ġcoat": 1954,
      "Ġsays": 1955,
      "Ġpicnic": 1956,
      "Ġglove": 1957,
      "iff": 1958,
      "Ġarranged": 1959,
      "eds": 1960,
      "Ġconstruction": 1961,
      "Ġmod": 1962,
      "Ġsteep": 1963,
      "icks": 1964,
      "Ġparty": 1965,
      "Ġdisc": 1966,
      "Ġarms": 1967,
      "ative": 1968,
      "Ġbroken": 1969,
      "Ġcostum": 1970,
      "Ġwheel": 1971,
      "Ġcirc": 1972,
      "Ġfig": 1973,
      "cture": 1974,
      "ia": 1975,
      "Ġport": 1976,
      "Ġmini": 1977,
      "Ġrackets": 1978,
      "Ġsnowboarding": 1979,
      "ps": 1980,
      "Ġbottom": 1981,
      "Ġcloth": 1982,
      "phones": 1983,
      "Ġfloors": 1984,
      "Ġtype": 1985,
      "Ġelectric": 1986,
      "Ġtrans": 1987,
      "rushes": 1988,
      "Ġfriends": 1989,
      "mb": 1990,
      "Ġtrailer": 1991,
      "aches": 1992,
      "Ġpond": 1993,
      "Ġcage": 1994,
      "Ġmix": 1995,
      "uc": 1996,
      "xing": 1997,
      "Ġmust": 1998,
      "Ġlanding": 1999,
      "Ġclosed": 2000,
      "Ġlett": 2001,
      "Ġoverlooking": 2002,
      "key": 2003,
      "Ġdep": 2004,
      "Ġnarrow": 2005,
      "Ġspr": 2006,
      "Ġtied": 2007,
      "Ġju": 2008,
      "Ġwide": 2009,
      "Ġkneeling": 2010,
      "Ġjo": 2011,
      "Ġboarder": 2012,
      "Ġpots": 2013,
      "Ġorn": 2014,
      "cakes": 2015,
      "Ġgraze": 2016,
      "uck": 2017,
      "Ġhous": 2018,
      "Ġfanc": 2019,
      "Ġrider": 2020,
      "Ġhapp": 2021,
      "Ġsteam": 2022,
      "ung": 2023,
      "Ġcolors": 2024,
      "az": 2025,
      "Ġindo": 2026,
      "Ġoverhead": 2027,
      "Ġreads": 2028,
      "Ġchef": 2029,
      "Ġmag": 2030,
      "ony": 2031,
      "Ġpasta": 2032,
      "li": 2033,
      "Ġnap": 2034,
      "Ġje": 2035,
      "Ġfight": 2036,
      "Ġmessy": 2037,
      "Ġanti": 2038,
      "Ġsale": 2039,
      "Ġhimself": 2040,
      "Ġopp": 2041,
      "Ġbever": 2042,
      "Ġcakes": 2043,
      "Ġnet": 2044,
      "Ġmachine": 2045,
      "so": 2046,
      "Ġchain": 2047,
      "Ġfancy": 2048,
      "Ġcommut": 2049,
      "ially": 2050,
      "ctor": 2051,
      "Ġsmart": 2052,
      "Ġskating": 2053,
      "Ġsides": 2054,
      "Ġcarp": 2055,
      "Ġstra": 2056,
      "Ġappears": 2057,
      "na": 2058,
      "Ġbite": 2059,
      "Ġstru": 2060,
      "uching": 2061,
      "Ġtransit": 2062,
      "Ġplain": 2063,
      "Ġsweat": 2064,
      "Ġforeground": 2065,
      "Ġfeatures": 2066,
      "Ġgood": 2067,
      "Ġwalkway": 2068,
      "Ġveggies": 2069,
      "Ġpract": 2070,
      "Ġket": 2071,
      "Ġleather": 2072,
      "Ġrela": 2073,
      "Ġbur": 2074,
      "Ġtowels": 2075,
      "Ġsuits": 2076,
      "Ġsunset": 2077,
      "Ġties": 2078,
      "Ġgrill": 2079,
      "Ġaction": 2080,
      "ican": 2081,
      "Ġbik": 2082,
      "Ġcarpet": 2083,
      "Ġdrive": 2084,
      "Ġcap": 2085,
      "Ġpastries": 2086,
      "Ġcarrot": 2087,
      "Ġpartially": 2088,
      "Ġpants": 2089,
      "Ġshade": 2090,
      "Ġteen": 2091,
      "ates": 2092,
      "Ġgl": 2093,
      "Ġwhat": 2094,
      "Ġphotos": 2095,
      "Ġsport": 2096,
      "Ġurban": 2097,
      "Ġcas": 2098,
      "Ġstill": 2099,
      "Ġblock": 2100,
      "ring": 2101,
      "Ġbeard": 2102,
      "ators": 2103,
      "Ġpier": 2104,
      "Ġscoo": 2105,
      "Ġclothing": 2106,
      "Ġstret": 2107,
      "Ġantique": 2108,
      "Ġship": 2109,
      "Ġenter": 2110,
      "Ġloaded": 2111,
      "Ġpepperoni": 2112,
      "Ġpalm": 2113,
      "Ġmug": 2114,
      "Ġtoilets": 2115,
      "Ġcommuter": 2116,
      "Ġmush": 2117,
      "Ġdoorway": 2118,
      "Ġpastry": 2119,
      "Ġscooter": 2120,
      "Ġrefle": 2121,
      "Ġ2": 2122,
      "Ġsill": 2123,
      "Ġdevice": 2124,
      "Ġmushroom": 2125,
      "Ġheld": 2126,
      "Ġshoul": 2127,
      "Ġmis": 2128,
      "Ġblurry": 2129,
      "Ġposition": 2130,
      "Ġfashioned": 2131,
      "Ġtomato": 2132,
      "Ġleash": 2133,
      "Ġtoys": 2134,
      "Ġlies": 2135,
      "Ġbeneath": 2136,
      "Ġhole": 2137,
      "Ġbaked": 2138,
      "Ġvis": 2139,
      "Ġpee": 2140,
      "Ġmakes": 2141,
      "Ġracing": 2142,
      "Ġbull": 2143,
      "Ġsaus": 2144,
      "Ġsmoke": 2145,
      "Ġrust": 2146,
      "Ġclass": 2147,
      "Ġgets": 2148,
      "Ġtoas": 2149,
      "Ġkinds": 2150,
      "Ġwrapped": 2151,
      "Ġwinter": 2152,
      "imb": 2153,
      "Ġpaw": 2154,
      "me": 2155,
      "Ġsy": 2156,
      "Ġrailing": 2157,
      "Ġharbor": 2158,
      "house": 2159,
      "Ġwets": 2160,
      "ork": 2161,
      "Ġchips": 2162,
      "Ġdecorative": 2163,
      "Ġcontains": 2164,
      "Ġpedestrians": 2165,
      "Ġhouses": 2166,
      "Ġstructure": 2167,
      "ib": 2168,
      "Ġlid": 2169,
      "Ġwetsuit": 2170,
      "Ġfeed": 2171,
      "Ġsprink": 2172,
      "Ġgiving": 2173,
      "ne": 2174,
      "Ġself": 2175,
      "Ġpetting": 2176,
      "da": 2177,
      "mon": 2178,
      "range": 2179,
      "Ġapartment": 2180,
      "ering": 2181,
      "Ġused": 2182,
      "ighting": 2183,
      "cket": 2184,
      "very": 2185,
      "Ġisland": 2186,
      "Ġlettuce": 2187,
      "Ġfighter": 2188,
      "act": 2189,
      "Ġsupp": 2190,
      "cker": 2191,
      "Ġblond": 2192,
      "be": 2193,
      "Ġmud": 2194,
      "Ġincludes": 2195,
      "Ġcontainers": 2196,
      "Ġgla": 2197,
      "Ġstreets": 2198,
      "Ġmodel": 2199,
      "Ġcomf": 2200,
      "Ġrests": 2201,
      "Ġgarage": 2202,
      "ired": 2203,
      "Ġspot": 2204,
      "yard": 2205,
      "Ġseag": 2206,
      "ng": 2207,
      "Ġsort": 2208,
      "Ġmed": 2209,
      "Ġpeppers": 2210,
      "..": 2211,
      "Ġstun": 2212,
      "cting": 2213,
      "Ġfoll": 2214,
      "Ġdra": 2215,
      "ught": 2216,
      "Ġsheet": 2217,
      "Ġseagull": 2218,
      "Ġuse": 2219,
      "Ġleaf": 2220,
      "Ġprepared": 2221,
      "Ġvanity": 2222,
      "Ġbeans": 2223,
      "Ġopened": 2224,
      "Ġmulti": 2225,
      "ef": 2226,
      "Ġtur": 2227,
      "Ġfur": 2228,
      "Ġbunches": 2229,
      "Ġsix": 2230,
      "eller": 2231,
      "Ġmound": 2232,
      "Ġnood": 2233,
      "Ġscul": 2234,
      "Ġleading": 2235,
      "Ġstrawber": 2236,
      "Ġreturn": 2237,
      "sting": 2238,
      "Ġhall": 2239,
      "Ġupside": 2240,
      "idential": 2241,
      "Ġwar": 2242,
      "Ġmit": 2243,
      "Ġpr": 2244,
      "acon": 2245,
      "Ġhats": 2246,
      "Ġproduce": 2247,
      "rop": 2248,
      "lage": 2249,
      "Ġcele": 2250,
      "Ġru": 2251,
      "Ġcandle": 2252,
      "Ġutens": 2253,
      "Ġsiz": 2254,
      "Ġhere": 2255,
      "Ġrural": 2256,
      "Ġsculpt": 2257,
      "Ġwriting": 2258,
      "Ġwaits": 2259,
      "Ġpave": 2260,
      "Ġhood": 2261,
      "Ġheads": 2262,
      "Ġresidential": 2263,
      "Ġshopping": 2264,
      "Ġpans": 2265,
      "Ġpapers": 2266,
      "Ġthese": 2267,
      "Ġripe": 2268,
      "Ġbarn": 2269,
      "Ġbrightly": 2270,
      "Ġpavement": 2271,
      "gon": 2272,
      "Ġbacon": 2273,
      "Ġchin": 2274,
      "Ġlift": 2275,
      "Ġtiny": 2276,
      "Ġsheets": 2277,
      "Ġturned": 2278,
      "Ġsmal": 2279,
      "Ġmilk": 2280,
      "scap": 2281,
      "Ġpropeller": 2282,
      "par": 2283,
      "unding": 2284,
      "ible": 2285,
      "Ġbush": 2286,
      "Ġamer": 2287,
      "Ġnose": 2288,
      "Ġalongside": 2289,
      "Ġjuice": 2290,
      "mo": 2291,
      "hel": 2292,
      "Ġremotes": 2293,
      "Ġpaddle": 2294,
      "ier": 2295,
      "Ġgroom": 2296,
      "Ġpatio": 2297,
      "Ġurinals": 2298,
      "Ġhappy": 2299,
      "Ġfrosting": 2300,
      "Ġsoda": 2301,
      "itten": 2302,
      "ray": 2303,
      "Ġcond": 2304,
      "Ġtea": 2305,
      "Ġmeters": 2306,
      "Ġdirections": 2307,
      "ield": 2308,
      "Ġstream": 2309,
      "ital": 2310,
      "Ġcal": 2311,
      "bage": 2312,
      "Ġtouching": 2313,
      "ining": 2314,
      "erly": 2315,
      "Ġlog": 2316,
      "yclist": 2317,
      "Ġegg": 2318,
      "Ġpersonal": 2319,
      "Ġtank": 2320,
      "erial": 2321,
      "Ġsmaller": 2322,
      "Ġpres": 2323,
      "Ġrainy": 2324,
      "Ġbranches": 2325,
      "Ġflight": 2326,
      "Ġitself": 2327,
      "Ġcub": 2328,
      "Ġrear": 2329,
      "Ġdisplaying": 2330,
      "Ġriders": 2331,
      "Ġsnowboards": 2332,
      "Ġgen": 2333,
      "Ġkicking": 2334,
      "Ġterm": 2335,
      "Ġsized": 2336,
      "Ġeld": 2337,
      "Ġlaid": 2338,
      "Ġsem": 2339,
      "Ġexp": 2340,
      "Ġducks": 2341,
      "Ġcostume": 2342,
      "ige": 2343,
      "Ġpersons": 2344,
      "Ġmustard": 2345,
      "Ġpurse": 2346,
      "Ġparade": 2347,
      "bile": 2348,
      "zer": 2349,
      "chup": 2350,
      "ivid": 2351,
      "Ġketchup": 2352,
      "Ġstar": 2353,
      "cked": 2354,
      "Ġuniforms": 2355,
      "Ġflags": 2356,
      "Ġglaz": 2357,
      "Ġterminal": 2358,
      "kin": 2359,
      "Ġtent": 2360,
      "Ġlines": 2361,
      "Ġnoodles": 2362,
      "Ġloading": 2363,
      "Ġdecorations": 2364,
      "Ġladies": 2365,
      "Ġonly": 2366,
      "Ġbeige": 2367,
      "Ġsliding": 2368,
      "Ġofficer": 2369,
      "Ġbuilt": 2370,
      "aper": 2371,
      "Ġdresser": 2372,
      "Ġleg": 2373,
      "Ġsausage": 2374,
      "Ġutensils": 2375,
      "Ġpupp": 2376,
      "Ġchar": 2377,
      "Ġamerican": 2378,
      "ices": 2379,
      "Ġdeep": 2380,
      "Ġplatter": 2381,
      "Ġstud": 2382,
      "ness": 2383,
      "Ġow": 2384,
      "Ġbare": 2385,
      "Ġmushrooms": 2386,
      "lies": 2387,
      "Ġtrays": 2388,
      "Ġenclosed": 2389,
      "Ġornate": 2390,
      "Ġwaters": 2391,
      "Ġindivid": 2392,
      "Ġelderly": 2393,
      "Ġpickup": 2394,
      "Ġbutter": 2395,
      "Ġpower": 2396,
      "Ġleans": 2397,
      "Ġfried": 2398,
      "Ġshoe": 2399,
      "Ġthrows": 2400,
      "Ġeye": 2401,
      "scape": 2402,
      "Ġgas": 2403,
      "ster": 2404,
      "Ġcourse": 2405,
      "Ġsailing": 2406,
      "Ġapproaching": 2407,
      "Ġrais": 2408,
      "mpting": 2409,
      "cra": 2410,
      "Ġgreens": 2411,
      "Ġcollection": 2412,
      "Ġbride": 2413,
      "Ġdeli": 2414,
      "ature": 2415,
      "Ġpipe": 2416,
      "Ġgoes": 2417,
      "ird": 2418,
      "shirt": 2419,
      "Ġsemi": 2420,
      "Ġlaugh": 2421,
      "Ġposted": 2422,
      "Ġattempting": 2423,
      "Ġsweater": 2424,
      "Ġgoats": 2425,
      "Ġspect": 2426,
      "Ġuses": 2427,
      "Ġindividual": 2428,
      "Ġindoor": 2429,
      "Ġvest": 2430,
      "Ġgrowing": 2431,
      "ushing": 2432,
      "Ġhangs": 2433,
      "case": 2434,
      "pas": 2435,
      "Ġ1": 2436,
      "cted": 2437,
      "Ġliqu": 2438,
      "Ġruns": 2439,
      "Ġcrosswalk": 2440,
      "yclists": 2441,
      "Ġab": 2442,
      "Ġsim": 2443,
      "Ġmost": 2444,
      "Ġsailbo": 2445,
      "Ġtransp": 2446,
      "Ġbeverage": 2447,
      "Ġpaint": 2448,
      "Ġpulls": 2449,
      "Ġfake": 2450,
      "Ġwritten": 2451,
      "ior": 2452,
      "allow": 2453,
      "lled": 2454,
      "ory": 2455,
      "Ġrows": 2456,
      "Ġtoast": 2457,
      "Ġcons": 2458,
      "Ġpasses": 2459,
      "nel": 2460,
      "Ġlife": 2461,
      "Ġneatly": 2462,
      "Ġmitt": 2463,
      "Ġguit": 2464,
      "als": 2465,
      "ence": 2466,
      "Ġclimb": 2467,
      "Ġif": 2468,
      "rounding": 2469,
      "Ġstad": 2470,
      "omot": 2471,
      "Ġsurrounding": 2472,
      "Ġbending": 2473,
      "Ġcurled": 2474,
      "sted": 2475,
      "Ġjets": 2476,
      "Ġpotted": 2477,
      "Ġrolling": 2478,
      "hill": 2479,
      "Ġbaskets": 2480,
      "ully": 2481,
      "Ġrelaxing": 2482,
      "craft": 2483,
      "Ġflor": 2484,
      "Ġwires": 2485,
      "Ġmicro": 2486,
      "Ġlocomot": 2487,
      "Ġstadium": 2488,
      "cing": 2489,
      "ton": 2490,
      "usk": 2491,
      "ware": 2492,
      "Ġna": 2493,
      "Ġroadway": 2494,
      "ging": 2495,
      "Ġ3": 2496,
      "Ġrope": 2497,
      "Ġcurtains": 2498,
      "Ġpatter": 2499,
      "gan": 2500,
      "Ġmissing": 2501,
      "Ġsupplies": 2502,
      "Ġhow": 2503,
      "Ġshirtless": 2504,
      "Ġhandle": 2505,
      "Ġlamps": 2506,
      "cake": 2507,
      "Ġwheels": 2508,
      "Ġglazed": 2509,
      "dd": 2510,
      "ues": 2511,
      "Ġduck": 2512,
      "Ġframe": 2513,
      "Ġpet": 2514,
      "Ġpri": 2515,
      "Ġstool": 2516,
      "Ġsticks": 2517,
      "Ġsnack": 2518,
      "Ġtax": 2519,
      "Ġballs": 2520,
      "Ġsports": 2521,
      "Ġlocomotive": 2522,
      "Ġsold": 2523,
      "ishing": 2524,
      "Ġven": 2525,
      "Ġshadow": 2526,
      "Ġtops": 2527,
      "Ġspectators": 2528,
      "Ġtrol": 2529,
      "Ġpor": 2530,
      "Ġsiting": 2531,
      "Ġairliner": 2532,
      "Ġbell": 2533,
      "Ġspeed": 2534,
      "Ġsculpture": 2535,
      "bi": 2536,
      "Ġroses": 2537,
      "Ġke": 2538,
      "Ġmotion": 2539,
      "rance": 2540,
      "Ġmuse": 2541,
      "Ġfal": 2542,
      "Ġaircraft": 2543,
      "Ġpaved": 2544,
      "Ġelectronics": 2545,
      "Ġfalling": 2546,
      "Ġselfie": 2547,
      "Ġmuseum": 2548,
      "Ġtool": 2549,
      "Ġdim": 2550,
      "Ġblow": 2551,
      "ption": 2552,
      "Ġtail": 2553,
      "uffy": 2554,
      "Ġbookshel": 2555,
      "Ġgentle": 2556,
      "ares": 2557,
      "Ġperforms": 2558,
      "line": 2559,
      "Ġwithout": 2560,
      "Ġpiled": 2561,
      "osite": 2562,
      "Ġcelebr": 2563,
      "Ġwagon": 2564,
      "Ġtelephone": 2565,
      "lish": 2566,
      "Ġing": 2567,
      "Ġda": 2568,
      "Ġfrisbe": 2569,
      "Ġpracticing": 2570,
      "Ġstunt": 2571,
      "bed": 2572,
      "Ġang": 2573,
      "Ġshallow": 2574,
      "Ġtoothbrushes": 2575,
      "Ġpacked": 2576,
      "Ġarrange": 2577,
      "Ġguitar": 2578,
      "Ġnum": 2579,
      "Ġsection": 2580,
      "Ġtiles": 2581,
      "Ġfloral": 2582,
      "Ġsu": 2583,
      "Ġpine": 2584,
      "Ġflip": 2585,
      "Ġsepar": 2586,
      "Ġadvertise": 2587,
      "Ġmirrors": 2588,
      "Ġremo": 2589,
      "Ġaw": 2590,
      "Ġnumer": 2591,
      "bow": 2592,
      "low": 2593,
      "redi": 2594,
      "Ġjeans": 2595,
      "Ġingredi": 2596,
      "Ġfing": 2597,
      "Ġalso": 2598,
      "Ġgarbage": 2599,
      "Ġdelic": 2600,
      "Ġtoss": 2601,
      "Ġarrangement": 2602,
      "Ġcycle": 2603,
      "Ġadj": 2604,
      "Ġtalks": 2605,
      "Ġlandscape": 2606,
      "Ġshoulder": 2607,
      "Ġtong": 2608,
      "Ġhea": 2609,
      "Ġdead": 2610,
      "akers": 2611,
      "Ġtoaster": 2612,
      "Ġparas": 2613,
      "Ġflown": 2614,
      "Ġhomemade": 2615,
      "Ġopposite": 2616,
      "Ġadvertisement": 2617,
      "Ġselling": 2618,
      "Ġcop": 2619,
      "Ġhum": 2620,
      "ured": 2621,
      "Ġhors": 2622,
      "Ġbank": 2623,
      "Ġformation": 2624,
      "Ġsoft": 2625,
      "Ġfreezer": 2626,
      "Ġingredients": 2627,
      "Ġcupboard": 2628,
      "Ġspread": 2629,
      "Ġimages": 2630,
      "cking": 2631,
      "ste": 2632,
      "Ġbucket": 2633,
      "Ġfir": 2634,
      "Ġfast": 2635,
      "Ġcupcakes": 2636,
      "Ġpedestrian": 2637,
      "Ġcovering": 2638,
      "ute": 2639,
      "Ġsniff": 2640,
      "Ġrus": 2641,
      "Ġtravels": 2642,
      "Ġpatch": 2643,
      "Ġyou": 2644,
      "Ġfallen": 2645,
      "Ġtongue": 2646,
      "time": 2647,
      "Ġholder": 2648,
      "Ġjetliner": 2649,
      "Ġblankets": 2650,
      "Ġhotdogs": 2651,
      "Ġstrawberries": 2652,
      "Ġpuppy": 2653,
      "bur": 2654,
      "abit": 2655,
      "Ġcones": 2656,
      "Ġobjects": 2657,
      "Ġbuff": 2658,
      "Ġhits": 2659,
      "Ġsprinkles": 2660,
      "asing": 2661,
      "aged": 2662,
      "Ġcorn": 2663,
      "Ġexh": 2664,
      "Ġskirt": 2665,
      "Ġfluffy": 2666,
      "Ġskateboarders": 2667,
      "Ġasleep": 2668,
      "cess": 2669,
      "Ġdownhill": 2670,
      "Ġcoll": 2671,
      "Ġworkers": 2672,
      "Ġicing": 2673,
      "ckey": 2674,
      "Ġfoc": 2675,
      "Ġheadphones": 2676,
      "Ġpitching": 2677,
      "Ġmixed": 2678,
      "Ġhabit": 2679,
      "eback": 2680,
      "Ġcompetition": 2681,
      "Ġhorseback": 2682,
      "Ġmarble": 2683,
      "Ġnewsp": 2684,
      "umin": 2685,
      "ways": 2686,
      "ancing": 2687,
      "Ġpushing": 2688,
      "Ġmuff": 2689,
      "Ġstuck": 2690,
      "cts": 2691,
      "Ġgathering": 2692,
      "lit": 2693,
      "Ġfin": 2694,
      "Ġsha": 2695,
      "Ġstoplight": 2696,
      "Ġcounters": 2697,
      "Ġpictured": 2698,
      "Ġinf": 2699,
      "Ġmop": 2700,
      "Ġballoon": 2701,
      "Ġvisible": 2702,
      "Ġtab": 2703,
      "Ġwhole": 2704,
      "Ġfaces": 2705,
      "Ġfeaturing": 2706,
      "Ġneon": 2707,
      "Ġfrosted": 2708,
      "Ġmotorbi": 2709,
      "Ġrolls": 2710,
      "Ġhabitat": 2711,
      "Ġaut": 2712,
      "Ġaccess": 2713,
      "\".": 2714,
      "Ġlab": 2715,
      "Ġshirts": 2716,
      "Ġphotograp": 2717,
      "Ġstring": 2718,
      "ooks": 2719,
      "Ġrep": 2720,
      "aming": 2721,
      "Ġsnowboarders": 2722,
      "Ġentrance": 2723,
      "Ġcer": 2724,
      "Ġcargo": 2725,
      "Ġgolden": 2726,
      "Ġblonde": 2727,
      "Ġclimbing": 2728,
      "Ġreaches": 2729,
      "Ġwears": 2730,
      "ooked": 2731,
      "Ġslopes": 2732,
      "Ġcheckered": 2733,
      "fully": 2734,
      "Ġdump": 2735,
      "ising": 2736,
      "Ġpouring": 2737,
      "Ġwashing": 2738,
      "Ġtransport": 2739,
      "Ġorgan": 2740,
      "ked": 2741,
      "Ġrange": 2742,
      "Ġitem": 2743,
      "Ġdelicious": 2744,
      "ipped": 2745,
      "Ġleap": 2746,
      "bbing": 2747,
      "Ġfeeder": 2748,
      "Ġchil": 2749,
      "asty": 2750,
      "ho": 2751,
      "Ġfar": 2752,
      "Ġcarries": 2753,
      "Ġbit": 2754,
      "ondon": 2755,
      "Ġobser": 2756,
      "Ġmagn": 2757,
      "Ġprin": 2758,
      "Ġmicrophone": 2759,
      "ished": 2760,
      "Ġshiny": 2761,
      "Ġsomeones": 2762,
      "Ġpige": 2763,
      "Ġrainbow": 2764,
      "Ġstickers": 2765,
      "Ġnapkin": 2766,
      "oned": 2767,
      "Ġcovers": 2768,
      "Ġeven": 2769,
      "ount": 2770,
      "Ġhaired": 2771,
      "Ġtun": 2772,
      "oming": 2773,
      "Ġname": 2774,
      "Ġmoves": 2775,
      "Ġexten": 2776,
      "Ġfan": 2777,
      "lives": 2778,
      "Ġcondim": 2779,
      "py": 2780,
      "Ġolives": 2781,
      "Ġfre": 2782,
      "Ġlondon": 2783,
      "orter": 2784,
      "Ġbatting": 2785,
      "Ġbacks": 2786,
      "Ġopening": 2787,
      "Ġlaughing": 2788,
      "Ġfocus": 2789,
      "Ġbasketball": 2790,
      "Ġfurnis": 2791,
      "Ġliquid": 2792,
      "Ġhills": 2793,
      "Ġgrilled": 2794,
      "Ġofficers": 2795,
      "Ġgravel": 2796,
      "Ġblowing": 2797,
      "boy": 2798,
      "Ġcookies": 2799,
      "Ġenjoy": 2800,
      "Ġhambur": 2801,
      "Ġinterior": 2802,
      "dling": 2803,
      "Ġfigur": 2804,
      "Ġtrolley": 2805,
      "Ġexhib": 2806,
      "Ġbul": 2807,
      "Ġwing": 2808,
      "Ġbeef": 2809,
      "Ġdesserts": 2810,
      "ders": 2811,
      "Ġaud": 2812,
      "Ġgreat": 2813,
      "Ġteenag": 2814,
      "Ġlighting": 2815,
      "ountain": 2816,
      "Ġchecking": 2817,
      "Ġfirst": 2818,
      "Ġahead": 2819,
      "Ġcust": 2820,
      "Ġfountain": 2821,
      "Ġloung": 2822,
      "Ġmobile": 2823,
      "iers": 2824,
      "ories": 2825,
      "Ġthin": 2826,
      "Ġjar": 2827,
      "Ġcleaning": 2828,
      "Ġcardboard": 2829,
      "Ġrusty": 2830,
      "wood": 2831,
      "Ġgoat": 2832,
      "Ġsaf": 2833,
      "Ġpotato": 2834,
      "Ġinst": 2835,
      "Ġshru": 2836,
      "Ġdisplays": 2837,
      "Ġarch": 2838,
      "Ġbou": 2839,
      "ied": 2840,
      "uzz": 2841,
      "van": 2842,
      "Ġvol": 2843,
      "Ġplaid": 2844,
      "Ġlam": 2845,
      "Ġcomple": 2846,
      "Ġbunk": 2847,
      "aked": 2848,
      "Ġsug": 2849,
      "Ġbr": 2850,
      "Ġfishing": 2851,
      "Ġden": 2852,
      "Ġcontrols": 2853,
      "Ġshape": 2854,
      "Ġindic": 2855,
      "Ġlocated": 2856,
      "Ġminiature": 2857,
      "Ġrusted": 2858,
      "Ġtabby": 2859,
      "ience": 2860,
      "Ġsad": 2861,
      "Ġtrav": 2862,
      "Ġfoil": 2863,
      "ental": 2864,
      "Ġchees": 2865,
      "Ġcondiments": 2866,
      "Ġodd": 2867,
      "Ġpin": 2868,
      "Ġalley": 2869,
      "Ġcowboy": 2870,
      "Ġbooth": 2871,
      "Ġseats": 2872,
      "Ġherself": 2873,
      "Ġleag": 2874,
      "ently": 2875,
      "Ġmac": 2876,
      "Ġmarin": 2877,
      "ail": 2878,
      "Ġevery": 2879,
      "Ġclay": 2880,
      "Ġentertain": 2881,
      "Ġtools": 2882,
      "Ġnewspaper": 2883,
      "Ġexhibit": 2884,
      "was": 2885,
      "icol": 2886,
      "Ġflooring": 2887,
      "Ġbookshelf": 2888,
      "'t": 2889,
      "Ġfold": 2890,
      "rial": 2891,
      "ugging": 2892,
      "Ġcano": 2893,
      "Ġjockey": 2894,
      "Ġtravelling": 2895,
      "Ġcran": 2896,
      "Ġnic": 2897,
      "Ġcarts": 2898,
      "Ġspin": 2899,
      "Ġcountertop": 2900,
      "Ġhosp": 2901,
      "Ġturning": 2902,
      "Ġlane": 2903,
      "Ġcatches": 2904,
      "Ġsec": 2905,
      "Ġposed": 2906,
      "Ġmuddy": 2907,
      "Ġhospital": 2908,
      "ited": 2909,
      "erries": 2910,
      "rot": 2911,
      "Ġspray": 2912,
      "Ġunmade": 2913,
      "Ġmulticol": 2914,
      "Ġdepic": 2915,
      "Ġrad": 2916,
      "Ġforward": 2917,
      "Ġbent": 2918,
      "Ġpickle": 2919,
      "Ġcustom": 2920,
      "nect": 2921,
      "Ġbra": 2922,
      "ither": 2923,
      "Ġneigh": 2924,
      "Ġcrust": 2925,
      "Ġic": 2926,
      "Ġav": 2927,
      "Ġstir": 2928,
      "amic": 2929,
      "stri": 2930,
      "Ġcere": 2931,
      "Ġeither": 2932,
      "Ġsharing": 2933,
      "Ġindust": 2934,
      "Ġgloves": 2935,
      "Ġsyste": 2936,
      "Ġsize": 2937,
      "Ġaerial": 2938,
      "Ġcalf": 2939,
      "thy": 2940,
      "Ġhallway": 2941,
      "Ġleague": 2942,
      "mpt": 2943,
      "eting": 2944,
      "anta": 2945,
      "Ġmeadow": 2946,
      "Ġhelping": 2947,
      "Ġsteeple": 2948,
      "Ġcomforter": 2949,
      "most": 2950,
      "Ġstares": 2951,
      "umm": 2952,
      "Ġcafe": 2953,
      "Ġattire": 2954,
      "Ġbalc": 2955,
      "Ġmagaz": 2956,
      "Ġtaxi": 2957,
      "Ġsus": 2958,
      "erry": 2959,
      "Ġthrown": 2960,
      "Ġseries": 2961,
      "decker": 2962,
      "Ġindustrial": 2963,
      "wh": 2964,
      "Ġbill": 2965,
      "Ġonl": 2966,
      "Ġdot": 2967,
      "amp": 2968,
      "Ġpancakes": 2969,
      "Ġmatt": 2970,
      "Ġneighbor": 2971,
      "Ġill": 2972,
      "Ġstage": 2973,
      "Ġpara": 2974,
      "Ġgroc": 2975,
      "Ġwatering": 2976,
      "Ġlibr": 2977,
      "Ġuni": 2978,
      "washer": 2979,
      "Ġbrushes": 2980,
      "Ġnat": 2981,
      "Ġceramic": 2982,
      "Ġlibrary": 2983,
      "hood": 2984,
      "Ġcig": 2985,
      "Ġcalm": 2986,
      "Ġgrapes": 2987,
      "Ġdriver": 2988,
      "Ġseems": 2989,
      "Ġbiting": 2990,
      "here": 2991,
      "Ġwords": 2992,
      "Ġdishwasher": 2993,
      "Ġfollowing": 2994,
      "Ġnicely": 2995,
      "Ġmulticolored": 2996,
      "town": 2997,
      "Ġconnect": 2998,
      "Ġmore": 2999,
      "gged": 3000,
      "Ġfreshly": 3001,
      "Ġmostly": 3002,
      "Ġfrisbees": 3003,
      "men": 3004,
      "Ġtwin": 3005,
      "Ġalmost": 3006,
      "Ġburger": 3007,
      "Ġaccessories": 3008,
      "Ġtasty": 3009,
      "Ġwings": 3010,
      "Ġlif": 3011,
      "Ġsleeps": 3012,
      "Ġstatues": 3013,
      "Ġchinese": 3014,
      "bble": 3015,
      "Ġown": 3016,
      "arf": 3017,
      "Ġmain": 3018,
      "Ġdig": 3019,
      "Ġgaz": 3020,
      "iled": 3021,
      "Ġteams": 3022,
      "Ġpaws": 3023,
      "Ġchili": 3024,
      "Ġcoach": 3025,
      "Ġchasing": 3026,
      "Ġjumb": 3027,
      "Ġsteak": 3028,
      "Ġpicking": 3029,
      "Ġbagg": 3030,
      "Ġmatching": 3031,
      "Ġsystem": 3032,
      "work": 3033,
      "Ġsanta": 3034,
      "Ġband": 3035,
      "Ġbaking": 3036,
      "Ġheart": 3037,
      "Ġiron": 3038,
      "Ġadvertising": 3039,
      "Ġmattress": 3040,
      "Ġsle": 3041,
      "Ġfather": 3042,
      "ility": 3043,
      "Ġcliff": 3044,
      "Ġrailway": 3045,
      "Ġcountryside": 3046,
      "Ġseagulls": 3047,
      "Ġonlook": 3048,
      "Ġneighborhood": 3049,
      "zen": 3050,
      "attered": 3051,
      "Ġheading": 3052,
      "Ġchest": 3053,
      "Ġado": 3054,
      "ried": 3055,
      "Ġarrow": 3056,
      "Ġcanop": 3057,
      "Ġgrand": 3058,
      "Ġgentleman": 3059,
      "Ġcush": 3060,
      "Ġthick": 3061,
      "Ġhorns": 3062,
      "Ġdryer": 3063,
      "Ġapron": 3064,
      "Ġdesigned": 3065,
      "Ġfunny": 3066,
      "Ġtunnel": 3067,
      "Ġmarina": 3068,
      "Ġbalcony": 3069,
      "gress": 3070,
      "Ġhugging": 3071,
      "Ġcomb": 3072,
      "Ġserv": 3073,
      "Ġtas": 3074,
      "Ġge": 3075,
      "allic": 3076,
      "Ġcuts": 3077,
      "Ġprocess": 3078,
      "Ġchopped": 3079,
      "Ġvend": 3080,
      "Ġcushion": 3081,
      ".\"": 3082,
      "ral": 3083,
      "Ġcru": 3084,
      "Ġmans": 3085,
      "Ġlarger": 3086,
      "ctive": 3087,
      "Ġbakery": 3088,
      "Ġcollar": 3089,
      "Ġbouquet": 3090,
      "ux": 3091,
      "hers": 3092,
      "Ġribb": 3093,
      "Ġmetallic": 3094,
      "Ġamongst": 3095,
      "Ġaband": 3096,
      "Ġheavy": 3097,
      "iet": 3098,
      "ker": 3099,
      "rage": 3100,
      "Ġforeign": 3101,
      "aret": 3102,
      "Ġstraight": 3103,
      "Ġsniffing": 3104,
      "Ġhamburger": 3105,
      "Ġsugar": 3106,
      "Ġsuspen": 3107,
      "Ġcigaret": 3108,
      "Ġread": 3109,
      "Ġleaving": 3110,
      "Ġtrunks": 3111,
      "Ġjumbo": 3112,
      "oc": 3113,
      "Ġfed": 3114,
      "isting": 3115,
      "Ġlemon": 3116,
      "Ġowner": 3117,
      "Ġtin": 3118,
      "stand": 3119,
      "Ġworks": 3120,
      "Ġbuffet": 3121,
      "Ġdusk": 3122,
      "Ġtractor": 3123,
      "Ġtries": 3124,
      "Ġhose": 3125,
      "Ġcapt": 3126,
      "Ġwinds": 3127,
      "Ġdriveway": 3128,
      "Ġbaggage": 3129,
      "Ġabandoned": 3130,
      "Ġsets": 3131,
      "Ġfixt": 3132,
      "ument": 3133,
      "Ġconvers": 3134,
      "Ġprepare": 3135,
      "Ġattempt": 3136,
      "Ġel": 3137,
      "Ġris": 3138,
      "ano": 3139,
      "Ġfans": 3140,
      "ette": 3141,
      "olf": 3142,
      "Ġcupcake": 3143,
      "Ġboots": 3144,
      "Ġtyping": 3145,
      "Ġdevices": 3146,
      "Ġdimly": 3147,
      "Ġaudience": 3148,
      "sel": 3149,
      "Ġori": 3150,
      "Ġwarm": 3151,
      "ront": 3152,
      "Ġstory": 3153,
      "Ġrose": 3154,
      "Ġjers": 3155,
      "Ġweather": 3156,
      "Ġmove": 3157,
      "Ġchewing": 3158,
      "Ġresort": 3159,
      "Ġposter": 3160,
      "Ġfolded": 3161,
      "Ġnatural": 3162,
      "Ġcool": 3163,
      "Ġshining": 3164,
      "Ġlamb": 3165,
      "Ġdowntown": 3166,
      "Ġsunlight": 3167,
      "Ġmask": 3168,
      "pl": 3169,
      "Ġpony": 3170,
      "Ġtor": 3171,
      "use": 3172,
      "Ġbeg": 3173,
      "Ġunus": 3174,
      "Ġrails": 3175,
      "Ġworker": 3176,
      "Ġformal": 3177,
      "Ġconnected": 3178,
      "Ġjersey": 3179,
      "app": 3180,
      "ater": 3181,
      "Ġcold": 3182,
      "Ġcases": 3183,
      "Ġtho": 3184,
      "Ġhelm": 3185,
      "Ġcircular": 3186,
      "Ġturkey": 3187,
      "Ġmotorbike": 3188,
      "Ġentertainment": 3189,
      "Ġbay": 3190,
      "Ġmom": 3191,
      "Ġlim": 3192,
      "Ġmass": 3193,
      "Ġcastle": 3194,
      "ters": 3195,
      "Ġhung": 3196,
      "Ġdispen": 3197,
      "Ġring": 3198,
      "Ġpropped": 3199,
      "Ġobst": 3200,
      "urf": 3201,
      "quets": 3202,
      "Ġprote": 3203,
      "Ġframed": 3204,
      "Ġbearded": 3205,
      "Ġfinger": 3206,
      "Ġsla": 3207,
      "Ġbusses": 3208,
      "Ġmagnets": 3209,
      "Ġhelmets": 3210,
      "gy": 3211,
      "Ġgran": 3212,
      "Ġstrol": 3213,
      "Ġbackyard": 3214,
      "Ġfollow": 3215,
      "Ġhi": 3216,
      "ightly": 3217,
      "Ġmotorcyclist": 3218,
      "Ġprogress": 3219,
      "Ġbars": 3220,
      "Ġcandy": 3221,
      "Ġquiet": 3222,
      "Ġsmoking": 3223,
      "Ġorganized": 3224,
      "Ġobstac": 3225,
      "Ġpop": 3226,
      "Ġlighthouse": 3227,
      "Ġonlookers": 3228,
      "coming": 3229,
      "tor": 3230,
      "Ġhiding": 3231,
      "rable": 3232,
      "Ġpiano": 3233,
      "Ġupon": 3234,
      "Ġcupboards": 3235,
      "Ġcanopy": 3236,
      "Ġpoint": 3237,
      "Ġstorage": 3238,
      "Ġguard": 3239,
      "dered": 3240,
      "Ġsailboat": 3241,
      "Ġoper": 3242,
      "illa": 3243,
      "Ġcontents": 3244,
      "ival": 3245,
      "Ġraised": 3246,
      "lower": 3247,
      "Ġbund": 3248,
      "alley": 3249,
      "chair": 3250,
      "od": 3251,
      "Ġears": 3252,
      "ades": 3253,
      "Ġflood": 3254,
      "Ġkitty": 3255,
      "Ġmales": 3256,
      "Ġreflected": 3257,
      "ipping": 3258,
      "zy": 3259,
      "Ġson": 3260,
      "Ġgolf": 3261,
      "Ġlevel": 3262,
      "Ġdesc": 3263,
      "Ġscarf": 3264,
      "Ġbesides": 3265,
      "colored": 3266,
      "ggy": 3267,
      "Ġchefs": 3268,
      "Ġbikers": 3269,
      "Ġporch": 3270,
      "Ġtossing": 3271,
      "Ġevening": 3272,
      "Ġillumin": 3273,
      "Ġple": 3274,
      "Ġfurry": 3275,
      "Ġswe": 3276,
      "Ġcollage": 3277,
      "vely": 3278,
      "Ġwilder": 3279,
      "Ġfreight": 3280,
      "Ġadorable": 3281,
      "Ġpump": 3282,
      "Ġlicking": 3283,
      "Ġunc": 3284,
      "Ġlounging": 3285,
      "Ġtablet": 3286,
      "Ġinte": 3287,
      "angu": 3288,
      "Ġsavan": 3289,
      "Ġmonkey": 3290,
      "Ġscreens": 3291,
      "Ġspinach": 3292,
      "ives": 3293,
      "vated": 3294,
      "Ġfab": 3295,
      "Ġshut": 3296,
      "Ġshaking": 3297,
      "Ġskiis": 3298,
      "Ġracquets": 3299,
      "Ġbelt": 3300,
      "Ġleafy": 3301,
      "Ġadjus": 3302,
      "Ġgrocery": 3303,
      "Ġcigarette": 3304,
      "mons": 3305,
      "ze": 3306,
      "Ġ4": 3307,
      "Ġbats": 3308,
      "Ġsaying": 3309,
      "Ġdaytime": 3310,
      "Ġgrazes": 3311,
      "Ġsilverware": 3312,
      "Ġunique": 3313,
      "Ġwilderness": 3314,
      "eled": 3315,
      "med": 3316,
      "tru": 3317,
      "Ġlangu": 3318,
      "Ġheal": 3319,
      "istic": 3320,
      "Ġhardwood": 3321,
      "Ġpresent": 3322,
      "Ġsimple": 3323,
      "ests": 3324,
      "Ġbarrel": 3325,
      "Ġorder": 3326,
      "Ġsquat": 3327,
      "Ġbalancing": 3328,
      "Ġfootball": 3329,
      "Ġwarning": 3330,
      "Ġseparate": 3331,
      "Ġath": 3332,
      "Ġparrot": 3333,
      "Ġblind": 3334,
      "Ġlear": 3335,
      "Ġcrosses": 3336,
      "Ġpeeled": 3337,
      "za": 3338,
      "Ġpand": 3339,
      "arp": 3340,
      "Ġdust": 3341,
      "Ġlemons": 3342,
      "Ġfauc": 3343,
      "Ġprodu": 3344,
      "Ġpeeking": 3345,
      "Ġcomfort": 3346,
      "Ġlambs": 3347,
      "Ġba": 3348,
      "Ġloun": 3349,
      "Ġscattered": 3350,
      "Ġword": 3351,
      "Ġstrip": 3352,
      "Ġawa": 3353,
      "Ġsafety": 3354,
      "Ġsavanna": 3355,
      "Ġcookie": 3356,
      "Ġfriend": 3357,
      "Ġlounge": 3358,
      "Ġfair": 3359,
      "ord": 3360,
      "Ġthumb": 3361,
      "Ġmusic": 3362,
      "Ġvolley": 3363,
      "where": 3364,
      "ĠĠ": 3365,
      "Ġthan": 3366,
      "Ġpean": 3367,
      "Ġrece": 3368,
      "Ġreally": 3369,
      "Ġtag": 3370,
      "Ġgogg": 3371,
      "lers": 3372,
      "Ġtourists": 3373,
      "ungle": 3374,
      "Ġfabric": 3375,
      "no": 3376,
      "Ġtalk": 3377,
      "Ġstorm": 3378,
      "Ġparach": 3379,
      "Ġjungle": 3380,
      "Ġamount": 3381,
      "Ġbikini": 3382,
      "front": 3383,
      "Ġmel": 3384,
      "Ġnuts": 3385,
      "Ġlogs": 3386,
      "Ġdelivery": 3387,
      "Ġmoped": 3388,
      "ka": 3389,
      "Ġplayed": 3390,
      "Ġbalan": 3391,
      "Ġindoors": 3392,
      "Ġstretching": 3393,
      "Ġmagazine": 3394,
      "Ġribbon": 3395,
      "Ġgoggles": 3396,
      "Ġtire": 3397,
      "Ġplan": 3398,
      "Ġsne": 3399,
      "Ġador": 3400,
      "uddle": 3401,
      "Ġclutter": 3402,
      "Ġterra": 3403,
      "Ġcircle": 3404,
      "Ġnumerous": 3405,
      "Ġsuspended": 3406,
      "selves": 3407,
      "ta": 3408,
      "Ġwo": 3409,
      "Ġfighting": 3410,
      "ided": 3411,
      "Ġtowering": 3412,
      "aker": 3413,
      "Ġdecoration": 3414,
      "Ġsizes": 3415,
      "Ġtus": 3416,
      "anger": 3417,
      "Ġlink": 3418,
      "Ġthemselves": 3419,
      "Ġclassroom": 3420,
      "ooters": 3421,
      "Ġant": 3422,
      "ider": 3423,
      "Ġskin": 3424,
      "Ġfixing": 3425,
      "illing": 3426,
      "Ġsoap": 3427,
      "Ġshorel": 3428,
      "Ġbeverages": 3429,
      "Ġladder": 3430,
      "Ġballoons": 3431,
      "Ġpigeons": 3432,
      "Ġservice": 3433,
      "Ġshoreline": 3434,
      "dled": 3435,
      "ha": 3436,
      "hol": 3437,
      "Ġcher": 3438,
      "ilt": 3439,
      "Ġlean": 3440,
      "Ġscooters": 3441,
      "Ġcellphones": 3442,
      "Ġdrawers": 3443,
      "Ġdet": 3444,
      "Ġrec": 3445,
      "Ġplaza": 3446,
      "Ġstops": 3447,
      "pass": 3448,
      "Ġcanoe": 3449,
      "Ġcrane": 3450,
      "Ġobstacle": 3451,
      "gu": 3452,
      "its": 3453,
      "Ġwash": 3454,
      "Ġmotorcyclists": 3455,
      "Ġcourtyard": 3456,
      "Ġbarri": 3457,
      "Ġsticker": 3458,
      "Ġpickles": 3459,
      "Ġhealthy": 3460,
      "Ġstrange": 3461,
      "rib": 3462,
      "Ġsurfs": 3463,
      "Ġwear": 3464,
      "Ġcare": 3465,
      "Ġpairs": 3466,
      "Ġarmy": 3467,
      "Ġcloset": 3468,
      "Ġmuffin": 3469,
      "Ġcomplete": 3470,
      "aks": 3471,
      "Ġbin": 3472,
      "Ġfest": 3473,
      "Ġneed": 3474,
      "pper": 3475,
      "Ġbuns": 3476,
      "Ġvegetation": 3477,
      "Ġcereal": 3478,
      "Ġpanda": 3479,
      "uri": 3480,
      "Ġfoggy": 3481,
      "Ġskyline": 3482,
      "Ġtrim": 3483,
      "Ġphotographs": 3484,
      "Ġnoteb": 3485,
      "Ġgrin": 3486,
      "Ġfigure": 3487,
      "paste": 3488,
      "Ġtusks": 3489,
      "Ġstr": 3490,
      "orting": 3491,
      "Ġload": 3492,
      "resting": 3493,
      "Ġtoothpaste": 3494,
      "Ġstudents": 3495,
      "Ġconsisting": 3496,
      "Ġcone": 3497,
      "Ġreg": 3498,
      "Ġproject": 3499,
      "Ġshops": 3500,
      "Ġfurnished": 3501,
      "Ġberries": 3502,
      "Ġslightly": 3503,
      "Ġpoints": 3504,
      "unk": 3505,
      "Ġvalley": 3506,
      "Ġarri": 3507,
      "Ġrustic": 3508,
      "rat": 3509,
      "val": 3510,
      "Ġburn": 3511,
      "Ġshri": 3512,
      "Ġbedsp": 3513,
      "Ġcomes": 3514,
      "Ġslow": 3515,
      "Ġgoal": 3516,
      "Ġhaul": 3517,
      "Ġspeakers": 3518,
      "Ġact": 3519,
      "Ġlob": 3520,
      "Ġknit": 3521,
      "Ġmeeting": 3522,
      "Ġsilho": 3523,
      "wards": 3524,
      "Ġrelax": 3525,
      "Ġpositioned": 3526,
      "Ġvendor": 3527,
      "gie": 3528,
      "ws": 3529,
      "Ġtoo": 3530,
      "oose": 3531,
      "Ġsideways": 3532,
      "oney": 3533,
      "Ġspac": 3534,
      "Ġsplit": 3535,
      "Ġpens": 3536,
      "Ġportra": 3537,
      "Ġdispenser": 3538,
      "Ġfaucet": 3539,
      "Ġsilhou": 3540,
      "lines": 3541,
      "Ġbugg": 3542,
      "Ġputs": 3543,
      "Ġfat": 3544,
      "Ġmall": 3545,
      "Ġgroups": 3546,
      "Ġmaj": 3547,
      "Ġmarried": 3548,
      "Ġdesigns": 3549,
      "Ġapproaches": 3550,
      "Ġreflecting": 3551,
      "Ġsoftball": 3552,
      "Ġobserving": 3553,
      "Ġshrimp": 3554,
      "Ġarena": 3555,
      "Ġeleg": 3556,
      "Ġspla": 3557,
      "Ġheaded": 3558,
      "Ġpedestal": 3559,
      "covered": 3560,
      "ls": 3561,
      "shing": 3562,
      "Ġmay": 3563,
      "Ġlis": 3564,
      "alo": 3565,
      "Ġbeak": 3566,
      "Ġreach": 3567,
      "Ġwaterway": 3568,
      "Ġcrossed": 3569,
      "Ġmaterial": 3570,
      "Ġcatchers": 3571,
      "Ġdirect": 3572,
      "Ġpaddling": 3573,
      "Ġteenager": 3574,
      "Ġfixtures": 3575,
      "Ġoriental": 3576,
      "uro": 3577,
      "Ġmin": 3578,
      "illage": 3579,
      "Ġpeace": 3580,
      "Ġvillage": 3581,
      "Ġgrabbing": 3582,
      "ama": 3583,
      "Ġbathing": 3584,
      "Ġwading": 3585,
      "Ġlighted": 3586,
      "Ġfully": 3587,
      "Ġslicing": 3588,
      "toon": 3589,
      "Ġgoods": 3590,
      "Ġilluminated": 3591,
      "tie": 3592,
      "ope": 3593,
      "ebo": 3594,
      "Ġcaul": 3595,
      "Ġalco": 3596,
      "iflower": 3597,
      "Ġsailboats": 3598,
      "Ġleaping": 3599,
      "Ġattempts": 3600,
      "Ġgranite": 3601,
      "Ġelegant": 3602,
      "Ġseven": 3603,
      "Ġblur": 3604,
      "Ġairlines": 3605,
      "Ġconve": 3606,
      "Ġclassic": 3607,
      "Ġkeep": 3608,
      "Ġwand": 3609,
      "ret": 3610,
      "Ġcans": 3611,
      "Ġseas": 3612,
      "Ġcaught": 3613,
      "Ġsnacks": 3614,
      "Ġkept": 3615,
      "Ġslee": 3616,
      "Ġbedspread": 3617,
      "Ġwill": 3618,
      "Ġany": 3619,
      "raying": 3620,
      "Ġeuro": 3621,
      "Ġware": 3622,
      "Ġnumbers": 3623,
      "Ġbald": 3624,
      "Ġrepair": 3625,
      "Ġflooded": 3626,
      "mer": 3627,
      "Ġtrop": 3628,
      "att": 3629,
      "Ġfol": 3630,
      "Ġhad": 3631,
      "icle": 3632,
      "Ġconfe": 3633,
      "Ġcolle": 3634,
      "Ġlayer": 3635,
      "Ġpatterned": 3636,
      "Ġcheesy": 3637,
      "Ġcuc": 3638,
      "Ġherding": 3639,
      "Ġdesks": 3640,
      "Ġwaving": 3641,
      "Ġdeer": 3642,
      "Ġcauliflower": 3643,
      "Ġtight": 3644,
      "Ġtrough": 3645,
      "Ġbor": 3646,
      "rest": 3647,
      "right": 3648,
      "Ġforks": 3649,
      "Ġmov": 3650,
      "rence": 3651,
      "Ġdrawing": 3652,
      "Ġunusual": 3653,
      "Ġcucumb": 3654,
      "Ġbad": 3655,
      "Ġleads": 3656,
      "Ġtags": 3657,
      "Ġknives": 3658,
      "Ġexc": 3659,
      "ined": 3660,
      "Ġmap": 3661,
      "Ġmuch": 3662,
      "Ġcoast": 3663,
      "ift": 3664,
      "Ġdried": 3665,
      "Ġclus": 3666,
      "Ġpineapp": 3667,
      "Ġsecond": 3668,
      "Ġconversation": 3669,
      "Ġinteresting": 3670,
      "Ġpeanut": 3671,
      "urious": 3672,
      "Ġtropical": 3673,
      "af": 3674,
      "Ġsup": 3675,
      "Ġcobble": 3676,
      "Ġroman": 3677,
      "Ġkis": 3678,
      "Ġmonument": 3679,
      "Ġexam": 3680,
      "Ġbutton": 3681,
      "Ġspoons": 3682,
      "Ġfactor": 3683,
      "white": 3684,
      "Ġterrain": 3685,
      "Ġheard": 3686,
      "boat": 3687,
      "Ġdoubles": 3688,
      "Ġgarnis": 3689,
      "Ġfreeway": 3690,
      "Ġeurope": 3691,
      "cast": 3692,
      "Ġwithin": 3693,
      "icop": 3694,
      "Ġraft": 3695,
      "Ġskater": 3696,
      "Ġstopping": 3697,
      "Ġhelicop": 3698,
      "Ġ,": 3699,
      "Ġes": 3700,
      "Ġpus": 3701,
      "Ġfry": 3702,
      "Ġrecor": 3703,
      "Ġkay": 3704,
      "Ġbasin": 3705,
      "Ġgreenery": 3706,
      "Ġoverpass": 3707,
      "Ġdiam": 3708,
      "Ġboogie": 3709,
      "Ġphotographer": 3710,
      "Ġportrait": 3711,
      "ination": 3712,
      "labor": 3713,
      "Ġposs": 3714,
      "Ġwaff": 3715,
      "Ġconso": 3716,
      "Ġunf": 3717,
      "Ġpiles": 3718,
      "cloth": 3719,
      "Ġutility": 3720,
      "Ġpattern": 3721,
      "Ġlisten": 3722,
      "Ġostri": 3723,
      "ities": 3724,
      "Ġcome": 3725,
      "Ġhanding": 3726,
      "Ġeas": 3727,
      "ific": 3728,
      "Ġparent": 3729,
      "Ġquilt": 3730,
      "Ġstrapped": 3731,
      "Ġindividuals": 3732,
      "Ġautom": 3733,
      "Ġtransportation": 3734,
      "Ġfactory": 3735,
      "Ġdiamond": 3736,
      "dles": 3737,
      "dition": 3738,
      "pid": 3739,
      "Ġins": 3740,
      "Ġhip": 3741,
      "Ġatten": 3742,
      "Ġcartoon": 3743,
      "Ġhistor": 3744,
      "Ġcanal": 3745,
      "Ġturns": 3746,
      "Ġornam": 3747,
      "Ġcelebrating": 3748,
      "Ġmassive": 3749,
      "fts": 3750,
      "Ġsite": 3751,
      "Ġpeel": 3752,
      "Ġroaming": 3753,
      "Ġtablecloth": 3754,
      "Ġspraying": 3755,
      "angular": 3756,
      "Ġkeys": 3757,
      "Ġnightstand": 3758,
      "Ġhuman": 3759,
      "Ġtasting": 3760,
      "Ġnotebook": 3761,
      "Ġconvey": 3762,
      "ole": 3763,
      "Ġhal": 3764,
      "Ġstable": 3765,
      "Ġnow": 3766,
      "Ġstance": 3767,
      "Ġeight": 3768,
      "Ġairbor": 3769,
      "Ġdrying": 3770,
      "gging": 3771,
      "Ġcostumes": 3772,
      "Ġprint": 3773,
      "Ġsoldiers": 3774,
      "Ġwindsurf": 3775,
      "drop": 3776,
      "kins": 3777,
      "Ġgives": 3778,
      "Ġcompan": 3779,
      "Ġtape": 3780,
      "Ġbrief": 3781,
      "Ġcellular": 3782,
      "ughter": 3783,
      "Ġowl": 3784,
      "Ġhelicopter": 3785,
      "Ġ5": 3786,
      "Ġhooked": 3787,
      "Ġthing": 3788,
      "Ġrol": 3789,
      "Ġupright": 3790,
      "uld": 3791,
      "Ġblu": 3792,
      "Ġbagel": 3793,
      "Ġlanguage": 3794,
      "Ġgrinding": 3795,
      "Ġbuggy": 3796,
      "Ġconference": 3797,
      "Ġcree": 3798,
      "Ġrecl": 3799,
      "Ġshades": 3800,
      "Ġjars": 3801,
      "Ġelevated": 3802,
      "Ġtext": 3803,
      "Ġprot": 3804,
      "Ġprov": 3805,
      "Ġcurve": 3806,
      "Ġenglish": 3807,
      "Ġconsole": 3808,
      "Ġmi": 3809,
      "oored": 3810,
      "ico": 3811,
      "Ġjap": 3812,
      "Ġimp": 3813,
      "Ġknee": 3814,
      "Ġjackets": 3815,
      "Ġbutt": 3816,
      "Ġparasa": 3817,
      "Ġfigurine": 3818,
      "Ġindicating": 3819,
      "Ġjapan": 3820,
      "vi": 3821,
      "Ġelabor": 3822,
      "sticks": 3823,
      "Ġwake": 3824,
      "Ġdiv": 3825,
      "Ġunlo": 3826,
      "Ġpolka": 3827,
      "Ġdepot": 3828,
      "Ġextended": 3829,
      "Ġalcohol": 3830,
      "eter": 3831,
      "ably": 3832,
      "Ġeag": 3833,
      "Ġbackdrop": 3834,
      "Ġcompartment": 3835,
      "Ġboarders": 3836,
      "Ġdec": 3837,
      "Ġseating": 3838,
      "Ġspeaking": 3839,
      "Ġwrapper": 3840,
      "Ġinclude": 3841,
      "Ġparachute": 3842,
      "Ġairborne": 3843,
      "hand": 3844,
      "Ġtiss": 3845,
      "ised": 3846,
      "Ġdro": 3847,
      "Ġtents": 3848,
      "Ġweird": 3849,
      "Ġcamp": 3850,
      "Ġposts": 3851,
      "Ġcircus": 3852,
      "Ġlearning": 3853,
      "sa": 3854,
      "Ġident": 3855,
      "Ġpug": 3856,
      "oping": 3857,
      "urs": 3858,
      "Ġrect": 3859,
      "Ġfix": 3860,
      "Ġcloud": 3861,
      "Ġworld": 3862,
      "Ġcanad": 3863,
      "Ġcleaned": 3864,
      "Ġproducts": 3865,
      "ared": 3866,
      "suit": 3867,
      "Ġbis": 3868,
      "Ġcrib": 3869,
      "rome": 3870,
      "Ġthird": 3871,
      "idy": 3872,
      "Ġgrown": 3873,
      "Ġtex": 3874,
      "Ġdrivers": 3875,
      "Ġthemed": 3876,
      "Ġchained": 3877,
      "Ġgeese": 3878,
      "Ġadjusting": 3879,
      "bag": 3880,
      "ending": 3881,
      "Ġsnugg": 3882,
      "Ġcarry": 3883,
      "Ġovercast": 3884,
      "Ġwicker": 3885,
      "Ġdrawer": 3886,
      "Ġpractice": 3887,
      "Ġbrit": 3888,
      "Ġcustomers": 3889,
      "Ġbillboard": 3890,
      "Ġsavannah": 3891,
      "ert": 3892,
      "Ġblood": 3893,
      "Ġmetro": 3894,
      "Ġrowing": 3895,
      "Ġwindowsill": 3896,
      "Ġcrack": 3897,
      "Ġwinding": 3898,
      "Ġyouth": 3899,
      "Ġoppon": 3900,
      "Ġtoasted": 3901,
      "den": 3902,
      "ula": 3903,
      "Ġfrying": 3904,
      "Ġbabies": 3905,
      "Ġhangar": 3906,
      "Ġlove": 3907,
      "Ġflav": 3908,
      "Ġmessage": 3909,
      "Ġsignals": 3910,
      "Ġextra": 3911,
      "Ġteenage": 3912,
      "Ġfigurines": 3913,
      "Ġsquatting": 3914,
      "Ġhauling": 3915,
      "ditional": 3916,
      "Ġtim": 3917,
      "alt": 3918,
      "ened": 3919,
      "Ġnaked": 3920,
      "Ġpears": 3921,
      "vering": 3922,
      "Ġcathe": 3923,
      "Ġlie": 3924,
      "Ġdest": 3925,
      "Ġtrio": 3926,
      "Ġpathway": 3927,
      "Ġmashed": 3928,
      "Ġdigital": 3929,
      "Ġbegin": 3930,
      "Ġkissing": 3931,
      "ky": 3932,
      "ode": 3933,
      "view": 3934,
      "Ġsuch": 3935,
      "Ġskil": 3936,
      "andel": 3937,
      "stone": 3938,
      "Ġfloat": 3939,
      "scra": 3940,
      "Ġfarmers": 3941,
      "Ġthumbs": 3942,
      "Ġcathedr": 3943,
      "Ġip": 3944,
      "Ġtux": 3945,
      "Ġskyscra": 3946,
      "Ġmeats": 3947,
      "Ġamid": 3948,
      "Ġbackpacks": 3949,
      "Ġartistic": 3950,
      "Ġchina": 3951,
      "Ġdaughter": 3952,
      "Ġprinter": 3953,
      "Ġinstr": 3954,
      "Ġfestival": 3955,
      "Ġcathedral": 3956,
      "des": 3957,
      "Ġpig": 3958,
      "Ġgrab": 3959,
      "Ġdisk": 3960,
      "Ġheadboard": 3961,
      "Ġbarbed": 3962,
      "Ġafric": 3963,
      "Ġnewly": 3964,
      "Ġmedium": 3965,
      "Ġstrawberry": 3966,
      "Ġstools": 3967,
      "Ġphotographed": 3968,
      "Ġsneakers": 3969,
      "Ġblueb": 3970,
      "uched": 3971,
      "Ġu": 3972,
      "Ġid": 3973,
      "Ġtig": 3974,
      "Ġthre": 3975,
      "Ġplacing": 3976,
      "Ġpod": 3977,
      "ational": 3978,
      "ugged": 3979,
      "Ġbookcase": 3980,
      "Ġscenic": 3981,
      "Ġsails": 3982,
      "Ġknees": 3983,
      "Ġdepicting": 3984,
      "Ġcruise": 3985,
      "Ġstroller": 3986,
      "Ġuncooked": 3987,
      "Ġroller": 3988,
      "Ġafrican": 3989,
      "cy": 3990,
      "ipp": 3991,
      "life": 3992,
      "Ġstom": 3993,
      "Ġplains": 3994,
      "Ġshines": 3995,
      "Ġasph": 3996,
      "Ġdonkey": 3997,
      "Ġinteract": 3998,
      "Ġsol": 3999,
      "Ġcoo": 4000,
      "Ġgravy": 4001,
      "Ġcarous": 4002,
      "ills": 4003,
      "Ġtrip": 4004,
      "Ġworn": 4005,
      "Ġkeyboards": 4006,
      "ude": 4007,
      "Ġattract": 4008,
      "Ġcommode": 4009,
      "Ġnote": 4010,
      "Ġspecial": 4011,
      "Ġkettle": 4012,
      "Ġreturning": 4013,
      "Ġcalico": 4014,
      "Ġchrome": 4015,
      "Ġemb": 4016,
      "Ġpackage": 4017,
      "Ġstaircase": 4018,
      "Ġpowdered": 4019,
      "Ġcompeting": 4020,
      "Ġmajor": 4021,
      "Ġwarehouse": 4022,
      "Ġbritish": 4023,
      "otic": 4024,
      "urt": 4025,
      "Ġbean": 4026,
      "Ġrot": 4027,
      "Ġtowing": 4028,
      "Ġappear": 4029,
      "Ġlogo": 4030,
      "Ġemer": 4031,
      "Ġchopsticks": 4032,
      "Ġsuite": 4033,
      "Ġbarrier": 4034,
      "Ġlobby": 4035,
      "Ġdirectly": 4036,
      "Ġcluster": 4037,
      "Ġasphalt": 4038,
      "ai": 4039,
      "Ġcall": 4040,
      "Ġcent": 4041,
      "Ġcooks": 4042,
      "Ġgy": 4043,
      "Ġrob": 4044,
      "Ġplaces": 4045,
      "Ġchan": 4046,
      "Ġracks": 4047,
      "Ġpress": 4048,
      "Ġmarked": 4049,
      "Ġbarbe": 4050,
      "Ġtube": 4051,
      "Ġclosely": 4052,
      "Ġshrubs": 4053,
      "Ġadorned": 4054,
      "Ġcarousel": 4055,
      "gen": 4056,
      "ively": 4057,
      "rup": 4058,
      "Ġ6": 4059,
      "Ġpay": 4060,
      "Ġcable": 4061,
      "Ġfoli": 4062,
      "ops": 4063,
      "Ġroadside": 4064,
      "Ġstores": 4065,
      "Ġplanter": 4066,
      "Ġstripes": 4067,
      "Ġextre": 4068,
      "Ġcrate": 4069,
      "truck": 4070,
      "Ġconveyor": 4071,
      "Ġstomach": 4072,
      "ately": 4073,
      "Ġhind": 4074,
      "Ġger": 4075,
      "Ġselection": 4076,
      "ells": 4077,
      "Ġwere": 4078,
      "Ġconf": 4079,
      "Ġrunner": 4080,
      "Ġpotter": 4081,
      "deled": 4082,
      "Ġsubur": 4083,
      "Ġdeserted": 4084,
      "Ġstalls": 4085,
      "Ġelectrical": 4086,
      "Ġshuttle": 4087,
      "Ġfoliage": 4088,
      "ient": 4089,
      "Ġtatt": 4090,
      "Ġpuddle": 4091,
      "Ġones": 4092,
      "Ġanch": 4093,
      "Ġnames": 4094,
      "Ġki": 4095,
      "Ġfrozen": 4096,
      "amb": 4097,
      "elly": 4098,
      "ains": 4099,
      "Ġtowers": 4100,
      "Ġscrat": 4101,
      "Ġhelp": 4102,
      "Ġrocking": 4103,
      "osed": 4104,
      "Ġmacar": 4105,
      "Ġsuper": 4106,
      "Ġsat": 4107,
      "Ġcurious": 4108,
      "Ġferry": 4109,
      "Ġdug": 4110,
      "Ġpocket": 4111,
      "Ġintently": 4112,
      "Ġbicyclist": 4113,
      "Ġwhen": 4114,
      "Ġtourist": 4115,
      "Ġharness": 4116,
      "Ġentering": 4117,
      "Ġrubb": 4118,
      "Ġlistening": 4119,
      "Ġinspe": 4120,
      "Ġtattoo": 4121,
      "Ġmane": 4122,
      "Ġtrave": 4123,
      "Ġsharp": 4124,
      "Ġraw": 4125,
      "Ġforce": 4126,
      "Ġslide": 4127,
      "Ġrings": 4128,
      "Ġenvi": 4129,
      "ments": 4130,
      "Ġstationary": 4131,
      "Ġunit": 4132,
      "Ġdiner": 4133,
      "Ġpaintings": 4134,
      "Ġcrates": 4135,
      "Ġcompetit": 4136,
      "Ġmuffins": 4137,
      "Ġbalances": 4138,
      "pers": 4139,
      "Ġtee": 4140,
      "Ġble": 4141,
      "ath": 4142,
      "Ġdash": 4143,
      "ution": 4144,
      "Ġcoke": 4145,
      "Ġboardwalk": 4146,
      "Ġgour": 4147,
      "Ġmeas": 4148,
      "ronment": 4149,
      "Ġyog": 4150,
      "Ġwheelchair": 4151,
      "Ġfigures": 4152,
      "Ġportion": 4153,
      "Ġstretched": 4154,
      "Ġsuv": 4155,
      "Ġarchite": 4156,
      "Ġradio": 4157,
      "Ġsweet": 4158,
      "Ġdusty": 4159,
      "Ġostrich": 4160,
      "Ġmixt": 4161,
      "Ġopponent": 4162,
      "Ġenvironment": 4163,
      "rit": 4164,
      "Ġtro": 4165,
      "Ġcud": 4166,
      "Ġchandel": 4167,
      "ams": 4168,
      "Ġsau": 4169,
      "Ġarray": 4170,
      "Ġrefrigerators": 4171,
      "Ġshapes": 4172,
      "Ġwildlife": 4173,
      "Ġdual": 4174,
      "Ġshoulders": 4175,
      "Ġcubicle": 4176,
      "ummy": 4177,
      "Ġoperating": 4178,
      "Ġleaned": 4179,
      "Ġeuropean": 4180,
      "Ġpodium": 4181,
      "Ġmacaroni": 4182,
      "Ġmixture": 4183,
      "Ġgun": 4184,
      "Ġlimb": 4185,
      "Ġthru": 4186,
      "ically": 4187,
      "Ġstreetlight": 4188,
      "Ġmidair": 4189,
      "Ġloaf": 4190,
      "Ġstepping": 4191,
      "Ġstretches": 4192,
      "Ġsoldier": 4193,
      "Ġparasol": 4194,
      "Ġantel": 4195,
      "Ġblurred": 4196,
      "father": 4197,
      "orn": 4198,
      "Ġemp": 4199,
      "Ġships": 4200,
      "Ġcaption": 4201,
      "Ġfog": 4202,
      "ccup": 4203,
      "Ġchecks": 4204,
      "Ġmaroon": 4205,
      "Ġpartly": 4206,
      "Ġartwork": 4207,
      "Ġoutfits": 4208,
      "Ġrubbing": 4209,
      "Ġstarting": 4210,
      "Ġfingers": 4211,
      "Ġsilhouette": 4212,
      "Ġtuxed": 4213,
      "Ġtiger": 4214,
      "Ġtry": 4215,
      "alle": 4216,
      "lain": 4217,
      "Ġnecks": 4218,
      "cept": 4219,
      "Ġtagged": 4220,
      "Ġdef": 4221,
      "Ġspeeding": 4222,
      "Ġdip": 4223,
      "Ġclown": 4224,
      "Ġdressing": 4225,
      "Ġserves": 4226,
      "Ġpoliceman": 4227,
      "Ġcrouching": 4228,
      "Ġexpress": 4229,
      "Ġskillet": 4230,
      "Ġgym": 4231,
      "Ġmes": 4232,
      "Ġnest": 4233,
      "Ġpeering": 4234,
      "Ġrode": 4235,
      "Ġvac": 4236,
      "amas": 4237,
      "rong": 4238,
      "Ġpaj": 4239,
      "Ġquick": 4240,
      "like": 4241,
      "Ġspotted": 4242,
      "Ġangle": 4243,
      "Ġinfant": 4244,
      "Ġgrandfather": 4245,
      "Ġspacious": 4246,
      "Ġpineapple": 4247,
      "Ġelaborate": 4248,
      "Ġrectangular": 4249,
      "cue": 4250,
      "Ġnur": 4251,
      "Ġflipping": 4252,
      "Ġsignage": 4253,
      "Ġfloats": 4254,
      "Ġcurved": 4255,
      "Ġuniformed": 4256,
      "Ġshots": 4257,
      "Ġindian": 4258,
      "Ġsyrup": 4259,
      "Ġpriv": 4260,
      "Ġblinds": 4261,
      "Ġcherry": 4262,
      "Ġtexting": 4263,
      "car": 4264,
      "ye": 4265,
      "ino": 4266,
      "Ġox": 4267,
      "Ġbump": 4268,
      "Ġbamb": 4269,
      "Ġcast": 4270,
      "Ġinform": 4271,
      "Ġtouch": 4272,
      "Ġweeds": 4273,
      "Ġdemon": 4274,
      "Ġdipping": 4275,
      "Ġfeeds": 4276,
      "Ġjeep": 4277,
      "Ġremodeled": 4278,
      "Ġshrubb": 4279,
      "Ġelse": 4280,
      "Ġathlet": 4281,
      "Ġmovie": 4282,
      "Ġcobblestone": 4283,
      "Ġtissue": 4284,
      "Ġbamboo": 4285,
      "ales": 4286,
      "emb": 4287,
      "ou": 4288,
      "atula": 4289,
      "ckets": 4290,
      "Ġneeds": 4291,
      "Ġpies": 4292,
      "Ġyounger": 4293,
      "Ġjunk": 4294,
      "Ġhandic": 4295,
      "Ġspatula": 4296,
      "acting": 4297,
      "Ġsofas": 4298,
      "Ġapart": 4299,
      "plane": 4300,
      "Ġskinny": 4301,
      "Ġexcited": 4302,
      "inished": 4303,
      "Ġtuck": 4304,
      "Ġtidy": 4305,
      "Ġsi": 4306,
      "Ġsan": 4307,
      "Ġton": 4308,
      "Ġstump": 4309,
      "Ġdozen": 4310,
      "Ġholid": 4311,
      "celain": 4312,
      "acks": 4313,
      "Ġgrassland": 4314,
      "Ġmountainous": 4315,
      "Ġhitter": 4316,
      "Ġlodge": 4317,
      "Ġclaim": 4318,
      "ibly": 4319,
      "Ġsprinkled": 4320,
      "Ġstunts": 4321,
      "Ġporcelain": 4322,
      "Ġteenagers": 4323,
      "lat": 4324,
      "Ġaven": 4325,
      "Ġmural": 4326,
      "Ġhut": 4327,
      "ots": 4328,
      "utes": 4329,
      "Ġsomewhere": 4330,
      "Ġmenu": 4331,
      "Ġunri": 4332,
      "Ġbicyclists": 4333,
      "Ġwasher": 4334,
      "field": 4335,
      "po": 4336,
      "Ġave": 4337,
      "Ġfer": 4338,
      "Ġgaming": 4339,
      "Ġstart": 4340,
      "icip": 4341,
      "Ġplush": 4342,
      "Ġparts": 4343,
      "Ġsauc": 4344,
      "Ġkno": 4345,
      "Ġstacks": 4346,
      "Ġbalance": 4347,
      "Ġcraft": 4348,
      "Ġfarmer": 4349,
      "Ġspots": 4350,
      "Ġcrackers": 4351,
      "Ġpajamas": 4352,
      "Ġshrubbery": 4353,
      "Ġrough": 4354,
      "Ġviewed": 4355,
      "Ġclearing": 4356,
      "Ġengaged": 4357,
      "Ġletter": 4358,
      "Ġbiker": 4359,
      "Ġglowing": 4360,
      "Ġfurnishing": 4361,
      "Ġjapanese": 4362,
      "Ġidentical": 4363,
      "Ġrubber": 4364,
      "Ġgourmet": 4365,
      "Ġavenue": 4366,
      "fo": 4367,
      "fall": 4368,
      "Ġran": 4369,
      "Ġpork": 4370,
      "Ġdone": 4371,
      "Ġgoo": 4372,
      "ilted": 4373,
      "Ġreal": 4374,
      "Ġshred": 4375,
      "Ġjelly": 4376,
      "Ġskiier": 4377,
      "Ġled": 4378,
      "Ġviewing": 4379,
      "Ġletting": 4380,
      "Ġawaiting": 4381,
      "Ġunfinished": 4382,
      "mar": 4383,
      "ora": 4384,
      "Ġlime": 4385,
      "alled": 4386,
      "unch": 4387,
      "Ġreno": 4388,
      "Ġtraditional": 4389,
      "umn": 4390,
      "Ġupward": 4391,
      "Ġram": 4392,
      "Ġalarm": 4393,
      "Ġbanner": 4394,
      "Ġbowling": 4395,
      "ushi": 4396,
      "Ġcarriages": 4397,
      "Ġappliance": 4398,
      "Ġentree": 4399,
      "Ġsuburban": 4400,
      "obile": 4401,
      "Ġsushi": 4402,
      "Ġwool": 4403,
      "Ġpil": 4404,
      "Ġfile": 4405,
      "Ġdam": 4406,
      "Ġmotel": 4407,
      "Ġhear": 4408,
      "Ġtreats": 4409,
      "aging": 4410,
      "Ġbunny": 4411,
      "Ġmail": 4412,
      "Ġbigger": 4413,
      "ipe": 4414,
      "Ġunited": 4415,
      "Ġcontra": 4416,
      "Ġlining": 4417,
      "shield": 4418,
      "Ġcrouched": 4419,
      "Ġgrind": 4420,
      "Ġcelery": 4421,
      "Ġpigeon": 4422,
      "Ġchandelier": 4423,
      "Ġholiday": 4424,
      "Ġfuzz": 4425,
      "ishes": 4426,
      "Ġmoored": 4427,
      "Ġpeas": 4428,
      "Ġdoz": 4429,
      "Ġwindshield": 4430,
      "Ġswung": 4431,
      "Ġcutter": 4432,
      "Ġhaw": 4433,
      "Ġpitched": 4434,
      "Ġstripped": 4435,
      "Ġbulls": 4436,
      "Ġiced": 4437,
      "Ġlifting": 4438,
      "Ġcooling": 4439,
      "Ġautomobile": 4440,
      "Ġbuttons": 4441,
      "Ġgerman": 4442,
      "Ġfuzzy": 4443,
      "off": 4444,
      "Ġtying": 4445,
      "Ġdancing": 4446,
      "Ġroas": 4447,
      "Ġyork": 4448,
      "Ġrabb": 4449,
      "Ġottom": 4450,
      "Ġtech": 4451,
      "Ġteaching": 4452,
      "Ġlocked": 4453,
      "Ġbarren": 4454,
      "Ġpenc": 4455,
      "Ġgarlic": 4456,
      "Ġoutfield": 4457,
      "Ġhappily": 4458,
      "Ġhiking": 4459,
      "Ġplent": 4460,
      "Ġesc": 4461,
      "Ġprotest": 4462,
      "foot": 4463,
      "pris": 4464,
      "Ġbid": 4465,
      "Ġfit": 4466,
      "Ġcompact": 4467,
      "Ġtowed": 4468,
      "Ġaltered": 4469,
      "Ġopens": 4470,
      "Ġtreat": 4471,
      "Ġmaker": 4472,
      "Ġbreaking": 4473,
      "Ġforested": 4474,
      "Ġengines": 4475,
      "Ġnotes": 4476,
      "Ġequipped": 4477,
      "Ġcubs": 4478,
      "Ġseparated": 4479,
      "Ġpossibly": 4480,
      "Ġattractive": 4481,
      "fashion": 4482,
      "yed": 4483,
      "Ġ'": 4484,
      "Ġking": 4485,
      "Ġque": 4486,
      "Ġmer": 4487,
      "Ġcock": 4488,
      "Ġtram": 4489,
      "Ġgrouped": 4490,
      "Ġwallp": 4491,
      "Ġhandles": 4492,
      "Ġattent": 4493,
      "izon": 4494,
      "Ġpengu": 4495,
      "Ġcrest": 4496,
      "Ġfeathers": 4497,
      "Ġchickens": 4498,
      "cuit": 4499,
      "gn": 4500,
      "kers": 4501,
      "park": 4502,
      "Ġsumm": 4503,
      "Ġrim": 4504,
      "Ġshag": 4505,
      "andal": 4506,
      "Ġplayground": 4507,
      "Ġlead": 4508,
      "Ġhandbag": 4509,
      "Ġfoam": 4510,
      "dless": 4511,
      "Ġaged": 4512,
      "Ġstripe": 4513,
      "Ġpads": 4514,
      "Ġlocal": 4515,
      "Ġblocks": 4516,
      "Ġfalls": 4517,
      "Ġnavy": 4518,
      "Ġeagle": 4519,
      "Ġyogurt": 4520,
      "fashioned": 4521,
      "ma": 4522,
      "het": 4523,
      "Ġcot": 4524,
      "Ġfle": 4525,
      "Ġfut": 4526,
      "Ġhanger": 4527,
      "onal": 4528,
      "Ġwalled": 4529,
      "Ġovens": 4530,
      "Ġholes": 4531,
      "Ġgrizz": 4532,
      "Ġinteracting": 4533,
      "Ġletters": 4534,
      "Ġsilly": 4535,
      "Ġhoodie": 4536,
      "Ġtuxedo": 4537,
      "Ġfurnishings": 4538,
      "aves": 4539,
      "een": 4540,
      "green": 4541,
      "osing": 4542,
      "Ġpir": 4543,
      "Ġwhipped": 4544,
      "Ġvic": 4545,
      "Ġvandal": 4546,
      "Ġoutst": 4547,
      "tern": 4548,
      "Ġhorned": 4549,
      "Ġbends": 4550,
      "acent": 4551,
      "Ġblocking": 4552,
      "Ġsausages": 4553,
      "Ġbutterf": 4554,
      "Ġhipster": 4555,
      "Ġcompany": 4556,
      "Ġbiscuit": 4557,
      "Ġdozens": 4558,
      "flow": 4559,
      "Ġsitu": 4560,
      "Ġcoats": 4561,
      "Ġchamp": 4562,
      "ugs": 4563,
      "Ġgrasses": 4564,
      "Ġskates": 4565,
      "Ġhorizon": 4566,
      "Ġzone": 4567,
      "Ġalumin": 4568,
      "Ġflowered": 4569,
      "Ġguests": 4570,
      "Ġmean": 4571,
      "Ġsteer": 4572,
      "Ġfemales": 4573,
      "Ġnecktie": 4574,
      "Ġpowered": 4575,
      "Ġadjacent": 4576,
      "Ġpottery": 4577,
      "Ġdugout": 4578,
      "Ġshaggy": 4579,
      "noon": 4580,
      "thing": 4581,
      "ually": 4582,
      "Ġtul": 4583,
      "Ġsled": 4584,
      "Ġpane": 4585,
      "Ġhun": 4586,
      "Ġhud": 4587,
      "Ġdun": 4588,
      "rie": 4589,
      "Ġpipes": 4590,
      "imate": 4591,
      "Ġpoised": 4592,
      "Ġtoiletries": 4593,
      "Ġscale": 4594,
      "Ġridding": 4595,
      "Ġadm": 4596,
      "Ġperches": 4597,
      "Ġmem": 4598,
      "Ġsetup": 4599,
      "ooth": 4600,
      "Ġpitchers": 4601,
      "Ġafternoon": 4602,
      "Ġwrap": 4603,
      "Ġdolls": 4604,
      "Ġvisit": 4605,
      "Ġbullet": 4606,
      "Ġfollowed": 4607,
      "Ġhalves": 4608,
      "Ġwindsurfing": 4609,
      "Ġunloading": 4610,
      "Ġemplo": 4611,
      "Ġottoman": 4612,
      "Ġaluminum": 4613,
      "bee": 4614,
      "Ġpal": 4615,
      "uments": 4616,
      "Ġsurpris": 4617,
      "Ġwaterfall": 4618,
      "Ġheels": 4619,
      "Ġconte": 4620,
      "Ġslides": 4621,
      "Ġasc": 4622,
      "box": 4623,
      "Ġfiretruck": 4624,
      "Ġtheme": 4625,
      "Ġpointed": 4626,
      "Ġstained": 4627,
      "vention": 4628,
      "Ġretrie": 4629,
      "Ġcalled": 4630,
      "Ġcycles": 4631,
      "Ġavoc": 4632,
      "Ġstrings": 4633,
      "Ġparasailing": 4634,
      "Ġipod": 4635,
      "Ġplenty": 4636,
      "Ġoutstret": 4637,
      "Ġcontemp": 4638,
      "Ġ7": 4639,
      "Ġoil": 4640,
      "Ġmoney": 4641,
      "illed": 4642,
      "Ġwatched": 4643,
      "ulated": 4644,
      "Ġcong": 4645,
      "Ġswans": 4646,
      "Ġpreten": 4647,
      "Ġhilly": 4648,
      "Ġpanel": 4649,
      "Ġtort": 4650,
      "Ġfolding": 4651,
      "Ġprovide": 4652,
      "Ġinteractive": 4653,
      "Ġunripe": 4654,
      "Ġavocad": 4655,
      "yond": 4656,
      "Ġpets": 4657,
      "ana": 4658,
      "Ġgall": 4659,
      "Ġmanne": 4660,
      "Ġbeyond": 4661,
      "Ġrobe": 4662,
      "Ġbedding": 4663,
      "Ġspar": 4664,
      "Ġswan": 4665,
      "Ġsocks": 4666,
      "acter": 4667,
      "Ġmarsh": 4668,
      "Ġstew": 4669,
      "Ġleave": 4670,
      "wear": 4671,
      "izing": 4672,
      "Ġbelong": 4673,
      "Ġdistant": 4674,
      "Ġdelta": 4675,
      "ivity": 4676,
      "Ġaccents": 4677,
      "Ġcards": 4678,
      "mbers": 4679,
      "Ġmixing": 4680,
      "Ġhumming": 4681,
      "Ġsaddle": 4682,
      "Ġvandalized": 4683,
      "flowers": 4684,
      "Ġoutstretched": 4685,
      "bu": 4686,
      "pan": 4687,
      "the": 4688,
      "tra": 4689,
      "ua": 4690,
      "Ġpage": 4691,
      "Ġcit": 4692,
      "alks": 4693,
      "Ġroast": 4694,
      "Ġpoking": 4695,
      "Ġshed": 4696,
      "Ġrefe": 4697,
      "Ġdinning": 4698,
      "Ġdirecting": 4699,
      "Ġflatbed": 4700,
      "Ġsweatshirt": 4701,
      "Ġcharacter": 4702,
      "Ġcomfortable": 4703,
      "Ġsleek": 4704,
      "Ġantelope": 4705,
      "Ġmannequ": 4706,
      "Ġdom": 4707,
      "law": 4708,
      "ics": 4709,
      "Ġpeeling": 4710,
      "Ġcoles": 4711,
      "Ġever": 4712,
      "Ġrelish": 4713,
      "Ġcarn": 4714,
      "Ġwax": 4715,
      "Ġroads": 4716,
      "Ġconvention": 4717,
      "Ġrh": 4718,
      "Ġspro": 4719,
      "Ġdiving": 4720,
      "Ġwheeled": 4721,
      "Ġiphone": 4722,
      "Ġwandering": 4723,
      "Ġquickly": 4724,
      "Ġbidet": 4725,
      "Ġcoleslaw": 4726,
      "vily": 4727,
      "iner": 4728,
      "Ġtug": 4729,
      "ilar": 4730,
      "iced": 4731,
      "Ġcould": 4732,
      "Ġvast": 4733,
      "ions": 4734,
      "Ġcarved": 4735,
      "Ġherbs": 4736,
      "Ġcaution": 4737,
      "Ġspan": 4738,
      "Ġbricks": 4739,
      "Ġdriven": 4740,
      "Ġunable": 4741,
      "Ġclub": 4742,
      "achers": 4743,
      "Ġcorral": 4744,
      "Ġcabbage": 4745,
      "Ġmembers": 4746,
      "mbol": 4747,
      "Ġgliding": 4748,
      "Ġsymbol": 4749,
      "Ġbarefoot": 4750,
      "Ġsimilar": 4751,
      "Ġconsum": 4752,
      "Ġnumerals": 4753,
      "Ġheavily": 4754,
      "Ġdescri": 4755,
      "Ġcucumbers": 4756,
      "Ġcooler": 4757,
      "Ġgrizzly": 4758,
      "con": 4759,
      "mel": 4760,
      "og": 4761,
      "Ġult": 4762,
      "inger": 4763,
      "Ġbb": 4764,
      "ern": 4765,
      "Ġcola": 4766,
      "Ġplow": 4767,
      "str": 4768,
      "Ġsewing": 4769,
      "Ġbackwards": 4770,
      "tled": 4771,
      "Ġaspar": 4772,
      "Ġstocked": 4773,
      "Ġcord": 4774,
      "Ġsteering": 4775,
      "Ġdecked": 4776,
      "Ġpillar": 4777,
      "Ġnews": 4778,
      "Ġspeaker": 4779,
      "Ġcrouches": 4780,
      "Ġcops": 4781,
      "Ġinflat": 4782,
      "Ġthose": 4783,
      "Ġanchored": 4784,
      "Ġmeasuring": 4785,
      "Ġrabbit": 4786,
      "Ġsituated": 4787,
      "Ġinflatable": 4788,
      "ache": 4789,
      "count": 4790,
      "Ġoval": 4791,
      "Ġcyclist": 4792,
      "Ġmiss": 4793,
      "Ġroute": 4794,
      "Ġplugged": 4795,
      "Ġsmooth": 4796,
      "Ġnearly": 4797,
      "Ġairline": 4798,
      "Ġtemp": 4799,
      "Ġsocial": 4800,
      "Ġmidst": 4801,
      "Ġexit": 4802,
      "Ġassemb": 4803,
      "Ġcarrier": 4804,
      "Ġlocation": 4805,
      "Ġkneels": 4806,
      "berries": 4807,
      "Ġportable": 4808,
      "Ġraising": 4809,
      "Ġslab": 4810,
      "Ġkiw": 4811,
      "Ġdemonstr": 4812,
      "book": 4813,
      "ien": 4814,
      "Ġtr": 4815,
      "Ġpel": 4816,
      "Ġhom": 4817,
      "Ġmantle": 4818,
      "chan": 4819,
      "Ġshare": 4820,
      "Ġlego": 4821,
      "Ġcapped": 4822,
      "Ġcomplet": 4823,
      "Ġmoon": 4824,
      "Ġhydrants": 4825,
      "Ġstorefront": 4826,
      "Ġ19": 4827,
      "Ġliquor": 4828,
      "Ġmopeds": 4829,
      "Ġgazel": 4830,
      "Ġmelted": 4831,
      "Ġembra": 4832,
      "Ġprivate": 4833,
      "Ġchampag": 4834,
      "Ġtulips": 4835,
      "Ġtortilla": 4836,
      "Ġtet": 4837,
      "Ġovers": 4838,
      "Ġpon": 4839,
      "Ġincoming": 4840,
      "Ġstate": 4841,
      "Ġstating": 4842,
      "ower": 4843,
      "Ġrel": 4844,
      "Ġbend": 4845,
      "agus": 4846,
      "vest": 4847,
      "Ġbiplane": 4848,
      "Ġcurrent": 4849,
      "Ġhelps": 4850,
      "arth": 4851,
      "Ġmeals": 4852,
      "Ġsmartphone": 4853,
      "Ġfinished": 4854,
      "Ġbites": 4855,
      "Ġtimes": 4856,
      "Ġdashboard": 4857,
      "Ġasparagus": 4858,
      "Ġchampagne": 4859,
      "aff": 4860,
      "band": 4861,
      "hua": 4862,
      "yle": 4863,
      "Ġbrus": 4864,
      "lete": 4865,
      "ased": 4866,
      "Ġareas": 4867,
      "Ġreve": 4868,
      "Ġrolled": 4869,
      "Ġital": 4870,
      "Ġshaded": 4871,
      "Ġsmelling": 4872,
      "Ġtraining": 4873,
      "Ġsex": 4874,
      "Ġjam": 4875,
      "Ġscru": 4876,
      "Ġbroad": 4877,
      "Ġstem": 4878,
      "Ġramps": 4879,
      "Ġlayered": 4880,
      "Ġsmiley": 4881,
      "Ġcroiss": 4882,
      "Ġdiscus": 4883,
      "Ġcasser": 4884,
      "Ġleaps": 4885,
      "Ġmaterials": 4886,
      "Ġbriefcase": 4887,
      "Ġthrew": 4888,
      "Ġtravelers": 4889,
      "Ġwallpaper": 4890,
      "Ġsparse": 4891,
      "country": 4892,
      "ense": 4893,
      "oms": 4894,
      "orary": 4895,
      "Ġboun": 4896,
      "Ġappet": 4897,
      "Ġplated": 4898,
      "Ġmex": 4899,
      "Ġposters": 4900,
      "Ġfaced": 4901,
      "Ġpowder": 4902,
      "Ġchopping": 4903,
      "Ġmugs": 4904,
      "Ġsculptures": 4905,
      "Ġprice": 4906,
      "Ġshake": 4907,
      "Ġmotorbikes": 4908,
      "Ġthough": 4909,
      "Ġslowly": 4910,
      "Ġknitted": 4911,
      "Ġrodeo": 4912,
      "Ġbbq": 4913,
      "bird": 4914,
      "vd": 4915,
      "vet": 4916,
      "Ġwre": 4917,
      "Ġwon": 4918,
      "Ġcrown": 4919,
      "Ġdorm": 4920,
      "Ġnes": 4921,
      "Ġnuzz": 4922,
      "Ġske": 4923,
      "Ġgrape": 4924,
      "Ġrams": 4925,
      "Ġsco": 4926,
      "Ġspre": 4927,
      "Ġstrike": 4928,
      "Ġmachines": 4929,
      "Ġmixer": 4930,
      "Ġinstalled": 4931,
      "Ġbrand": 4932,
      "Ġpushed": 4933,
      "Ġcyclists": 4934,
      "Ġmor": 4935,
      "iring": 4936,
      "Ġwhit": 4937,
      "Ġthats": 4938,
      "amese": 4939,
      "Ġrasp": 4940,
      "Ġcages": 4941,
      "Ġsoaring": 4942,
      "eaten": 4943,
      "Ġstock": 4944,
      "Ġcords": 4945,
      "Ġprepar": 4946,
      "Ġmeatball": 4947,
      "Ġcheesecake": 4948,
      "Ġsquash": 4949,
      "Ġlanded": 4950,
      "Ġcroche": 4951,
      "Ġmedical": 4952,
      "Ġcombination": 4953,
      "Ġprotective": 4954,
      "Ġkayak": 4955,
      "Ġcreek": 4956,
      "Ġemergen": 4957,
      "Ġscratching": 4958,
      "Ġinformation": 4959,
      "Ġcasserole": 4960,
      "can": 4961,
      "yl": 4962,
      "Ġinstruction": 4963,
      "Ġfilling": 4964,
      "Ġlon": 4965,
      "Ġstare": 4966,
      "ids": 4967,
      "Ġwatermel": 4968,
      "Ġcaged": 4969,
      "Ġsoaked": 4970,
      "Ġperf": 4971,
      "Ġnothing": 4972,
      "Ġcrumb": 4973,
      "Ġmustache": 4974,
      "Ġcelebration": 4975,
      "Ġrise": 4976,
      "Ġtucked": 4977,
      "Ġpirate": 4978,
      "Ġhuddled": 4979,
      "Ġcompletely": 4980,
      "Ġemergency": 4981,
      "dress": 4982,
      "Ġdad": 4983,
      "ury": 4984,
      "Ġcoin": 4985,
      "Ġcoca": 4986,
      "Ġparalle": 4987,
      "Ġtending": 4988,
      "Ġairfield": 4989,
      "Ġsour": 4990,
      "Ġdresses": 4991,
      "Ġskatepark": 4992,
      "Ġcolorfully": 4993,
      "Ġserious": 4994,
      "Ġpolo": 4995,
      "Ġflaming": 4996,
      "Ġtakeoff": 4997,
      "Ġveggie": 4998,
      "Ġopposing": 4999,
      "Ġstudio": 5000,
      "Ġlabeled": 5001,
      "Ġwashington": 5002,
      "Ġjockeys": 5003,
      "Ġathlete": 5004,
      "ĠĠĠĠ": 5005,
      "Ġcanadian": 5006,
      "Ġinstruments": 5007,
      "Ġmaneu": 5008,
      "Ġsaucer": 5009,
      "Ġsurprised": 5010,
      "Ġtusk": 5011,
      "Ġol": 5012,
      "Ġbrow": 5013,
      "Ġcram": 5014,
      "Ġges": 5015,
      "Ġlas": 5016,
      "Ġtouches": 5017,
      "Ġrapid": 5018,
      "Ġbasil": 5019,
      "Ġspag": 5020,
      "angle": 5021,
      "Ġtires": 5022,
      "Ġcabinetry": 5023,
      "Ġlower": 5024,
      "Ġdragon": 5025,
      "Ġangry": 5026,
      "Ġbuffalo": 5027,
      "Ġcollege": 5028,
      "Ġborder": 5029,
      "Ġwaffles": 5030,
      "Ġbeginning": 5031,
      "Ġbleachers": 5032,
      "Ġsummer": 5033,
      "hetti": 5034,
      "mely": 5035,
      "Ġer": 5036,
      "Ġtick": 5037,
      "Ġoly": 5038,
      "end": 5039,
      "Ġvert": 5040,
      "Ġupper": 5041,
      "Ġlens": 5042,
      "Ġtaped": 5043,
      "anging": 5044,
      "Ġbrocol": 5045,
      "Ġperch": 5046,
      "Ġallow": 5047,
      "Ġcemet": 5048,
      "Ġsquir": 5049,
      "Ġsinging": 5050,
      "Ġaccom": 5051,
      "acters": 5052,
      "Ġcharacters": 5053,
      "Ġbookshelves": 5054,
      "Ġprinted": 5055,
      "Ġcanoes": 5056,
      "Ġpresentation": 5057,
      "Ġcomfortably": 5058,
      "Ġvolleyball": 5059,
      "Ġhistoric": 5060,
      "Ġlonely": 5061,
      "Ġparallel": 5062,
      "Ġspaghetti": 5063,
      "Ġolymp": 5064,
      "Ġbrocolli": 5065,
      "Ġoncoming": 5066,
      "aling": 5067,
      "Ġfields": 5068,
      "sters": 5069,
      "rely": 5070,
      "Ġconver": 5071,
      "aped": 5072,
      "Ġbron": 5073,
      "Ġtiered": 5074,
      "Ġcamping": 5075,
      "Ġbest": 5076,
      "Ġstems": 5077,
      "Ġshelving": 5078,
      "Ġclearly": 5079,
      "Ġmakeup": 5080,
      "Ġchains": 5081,
      "Ġcarpeted": 5082,
      "Ġdraped": 5083,
      "Ġrecei": 5084,
      "Ġextremely": 5085,
      "Ġgesture": 5086,
      "ki": 5087,
      "uting": 5088,
      "Ġaqu": 5089,
      "Ġinstru": 5090,
      "arn": 5091,
      "Ġfill": 5092,
      "Ġnon": 5093,
      "Ġtwig": 5094,
      "Ġrele": 5095,
      "Ġbushel": 5096,
      "Ġshep": 5097,
      "Ġknow": 5098,
      "Ġmarking": 5099,
      "Ġsomebo": 5100,
      "Ġstates": 5101,
      "Ġcrew": 5102,
      "Ġfeatured": 5103,
      "Ġentry": 5104,
      "Ġnapkins": 5105,
      "Ġstretch": 5106,
      "Ġlimit": 5107,
      "Ġrelaxes": 5108,
      "Ġgarnish": 5109,
      "Ġparents": 5110,
      "Ġblueberries": 5111,
      "Ġsauces": 5112,
      "ouf": 5113,
      "Ġsomebody": 5114,
      "ex": 5115,
      "vil": 5116,
      "Ġsight": 5117,
      "Ġome": 5118,
      "atic": 5119,
      "Ġhoney": 5120,
      "Ġnine": 5121,
      "ote": 5122,
      "igating": 5123,
      "Ġskull": 5124,
      "Ġends": 5125,
      "aco": 5126,
      "Ġcamouf": 5127,
      "Ġcloudless": 5128,
      "Ġtanger": 5129,
      "lined": 5130,
      "Ġdepartment": 5131,
      "Ġglides": 5132,
      "Ġnav": 5133,
      "Ġshaving": 5134,
      "Ġbarrels": 5135,
      "Ġdeta": 5136,
      "Ġseason": 5137,
      "Ġqueen": 5138,
      "Ġpenguin": 5139,
      "Ġpreparation": 5140,
      "du": 5141,
      "eler": 5142,
      "kn": 5143,
      "Ġ&": 5144,
      "Ġaler": 5145,
      "Ġoccup": 5146,
      "Ġwrest": 5147,
      "Ġhur": 5148,
      "Ġdeb": 5149,
      "Ġyet": 5150,
      "Ġyarn": 5151,
      "Ġrand": 5152,
      "Ġsporting": 5153,
      "Ġmountainside": 5154,
      "Ġnighttime": 5155,
      "Ġpolit": 5156,
      "Ġamb": 5157,
      "Ġgreeting": 5158,
      "Ġdarkened": 5159,
      "Ġpicked": 5160,
      "Ġdirectional": 5161,
      "Ġquite": 5162,
      "Ġpresents": 5163,
      "Ġpresident": 5164,
      "Ġgazing": 5165,
      "Ġfollows": 5166,
      "Ġchange": 5167,
      "Ġbarbecue": 5168,
      "Ġshredded": 5169,
      "Ġmexican": 5170,
      "Ġperfect": 5171,
      "ners": 5172,
      "itch": 5173,
      "Ġcozy": 5174,
      "undred": 5175,
      "Ġboul": 5176,
      "Ġwindy": 5177,
      "Ġsouth": 5178,
      "Ġstyled": 5179,
      "Ġpaddles": 5180,
      "Ġartific": 5181,
      "Ġcrashing": 5182,
      "Ġchoppy": 5183,
      "Ġconsists": 5184,
      "Ġextends": 5185,
      "Ġeveryone": 5186,
      "Ġeverything": 5187,
      "what": 5188,
      "Ġregular": 5189,
      "Ġprojector": 5190,
      "Ġeasy": 5191,
      "Ġsiamese": 5192,
      "Ġreferee": 5193,
      "Ġultimate": 5194,
      "zing": 5195,
      "Ġtarp": 5196,
      "Ġoct": 5197,
      "ises": 5198,
      "Ġhundred": 5199,
      "Ġgot": 5200,
      "eties": 5201,
      "Ġwallet": 5202,
      "Ġgive": 5203,
      "Ġpregn": 5204,
      "Ġvarieties": 5205,
      "Ġfriz": 5206,
      "Ġbreast": 5207,
      "Ġcurly": 5208,
      "Ġmusical": 5209,
      "Ġframes": 5210,
      "Ġsteamed": 5211,
      "Ġexposed": 5212,
      "Ġlifts": 5213,
      "Ġevergreen": 5214,
      "Ġtethered": 5215,
      "cut": 5216,
      "fl": 5217,
      "feter": 5218,
      "wning": 5219,
      "Ġaim": 5220,
      "Ġoak": 5221,
      "rab": 5222,
      "Ġrod": 5223,
      "Ġstrewn": 5224,
      "Ġsomewhat": 5225,
      "station": 5226,
      "Ġbuckets": 5227,
      "Ġmotorized": 5228,
      "Ġcafeter": 5229,
      "Ġflowing": 5230,
      "Ġarched": 5231,
      "estri": 5232,
      "Ġpolicemen": 5233,
      "Ġofficial": 5234,
      "Ġearly": 5235,
      "Ġstudent": 5236,
      "Ġenjoys": 5237,
      "Ġcountertops": 5238,
      "Ġicy": 5239,
      "Ġstirring": 5240,
      "Ġbegins": 5241,
      "Ġbundle": 5242,
      "Ġarriving": 5243,
      "Ġwaffle": 5244,
      "Ġcompetitive": 5245,
      "Ġdamaged": 5246,
      "Ġbutterfly": 5247,
      "Ġsprouts": 5248,
      "Ġmorning": 5249,
      "Ġartificial": 5250,
      "cot": 5251,
      "zard": 5252,
      "Ġbins": 5253,
      "Ġpant": 5254,
      "Ġlux": 5255,
      "Ġtoday": 5256,
      "Ġni": 5257,
      "Ġnut": 5258,
      "Ġpeaco": 5259,
      "Ġrese": 5260,
      "Ġrounding": 5261,
      "Ġvi": 5262,
      "Ġvests": 5263,
      "Ġgrow": 5264,
      "Ġtrainer": 5265,
      "Ġsep": 5266,
      "Ġmetrop": 5267,
      "atory": 5268,
      "Ġmechan": 5269,
      "Ġcurvy": 5270,
      "Ġmicrowaves": 5271,
      "Ġneckla": 5272,
      "Ġdeserts": 5273,
      "Ġtaxis": 5274,
      "Ġbelly": 5275,
      "Ġawning": 5276,
      "Ġsniffs": 5277,
      "Ġburning": 5278,
      "ippers": 5279,
      "Ġwatermelon": 5280,
      "Ġolive": 5281,
      "Ġrandom": 5282,
      "Ġpregnant": 5283,
      "Ġcafeteria": 5284,
      "nam": 5285,
      "oram": 5286,
      "oise": 5287,
      "tes": 5288,
      "uis": 5289,
      "vation": 5290,
      "Ġtelling": 5291,
      "Ġsanding": 5292,
      "itan": 5293,
      "Ġpac": 5294,
      "Ġinvest": 5295,
      "Ġhook": 5296,
      "Ġgad": 5297,
      "rid": 5298,
      "Ġpeers": 5299,
      "ums": 5300,
      "ament": 5301,
      "Ġbusines": 5302,
      "Ġhorn": 5303,
      "Ġmote": 5304,
      "Ġsword": 5305,
      "Ġcamper": 5306,
      "Ġcameras": 5307,
      "Ġexiting": 5308,
      "Ġoverlooks": 5309,
      "Ġsupport": 5310,
      "Ġmedic": 5311,
      "Ġturqu": 5312,
      "Ġbulld": 5313,
      "Ġeverywhere": 5314,
      "Ġcarnival": 5315,
      "Ġitalian": 5316,
      "Ġsepia": 5317,
      "Ġbusinesses": 5318,
      "dant": 5319,
      "Ġtide": 5320,
      "Ġwest": 5321,
      "Ġpale": 5322,
      "Ġcry": 5323,
      "ara": 5324,
      "Ġfiled": 5325,
      "Ġmy": 5326,
      "Ġstars": 5327,
      "lapid": 5328,
      "rict": 5329,
      "Ġbeat": 5330,
      "Ġshady": 5331,
      "Ġflan": 5332,
      "stop": 5333,
      "aint": 5334,
      "Ġskiiers": 5335,
      "Ġjumped": 5336,
      "Ġobama": 5337,
      "Ġequestri": 5338,
      "lights": 5339,
      "Ġdoesn": 5340,
      "Ġ20": 5341,
      "Ġfinish": 5342,
      "Ġrising": 5343,
      "Ġcucumber": 5344,
      "Ġarchitecture": 5345,
      "Ġvacant": 5346,
      "Ġavocado": 5347,
      "Ġomelet": 5348,
      "Ġmetropol": 5349,
      "Ġturquoise": 5350,
      "lapidated": 5351,
      "cul": 5352,
      "mes": 5353,
      "ney": 5354,
      "turn": 5355,
      "Ġsells": 5356,
      "Ġwoo": 5357,
      "Ġgated": 5358,
      "Ġstones": 5359,
      "used": 5360,
      "Ġskills": 5361,
      "Ġkiss": 5362,
      "Ġkicks": 5363,
      "Ġyach": 5364,
      "Ġgraph": 5365,
      "Ġgrabs": 5366,
      "Ġgradu": 5367,
      "stal": 5368,
      "Ġairways": 5369,
      "Ġbackhand": 5370,
      "Ġrather": 5371,
      "Ġspices": 5372,
      "Ġtrek": 5373,
      "Ġmarker": 5374,
      "Ġliner": 5375,
      "Ġstriking": 5376,
      "Ġdistrict": 5377,
      "Ġmilking": 5378,
      "berry": 5379,
      "Ġaccident": 5380,
      "Ġpropellers": 5381,
      "Ġlimes": 5382,
      "Ġbalanced": 5383,
      "Ġhistorical": 5384,
      "Ġnursing": 5385,
      "Ġhomes": 5386,
      "Ġaccompan": 5387,
      "Ġdebris": 5388,
      "Ġambul": 5389,
      "Ġgadget": 5390,
      "50": 5391,
      "dges": 5392,
      "pie": 5393,
      "pipe": 5394,
      "ties": 5395,
      "Ġwig": 5396,
      "rets": 5397,
      "Ġlion": 5398,
      "Ġstrong": 5399,
      "othered": 5400,
      "Ġplaque": 5401,
      "Ġchalk": 5402,
      "Ġsmothered": 5403,
      "Ġlives": 5404,
      "Ġleas": 5405,
      "Ġlegged": 5406,
      "Ġmirrored": 5407,
      "Ġpassed": 5408,
      "Ġhello": 5409,
      "Ġsubmer": 5410,
      "Ġcarton": 5411,
      "Ġsafari": 5412,
      "Ġrises": 5413,
      "Ġwarming": 5414,
      "Ġrotten": 5415,
      "Ġattention": 5416,
      "Ġkiwi": 5417,
      "Ġsexy": 5418,
      "Ġnestled": 5419,
      "Ġcemetery": 5420,
      "min": 5421,
      "Ġweb": 5422,
      "Ġthen": 5423,
      "rofo": 5424,
      "omb": 5425,
      "unching": 5426,
      "Ġshoo": 5427,
      "Ġbatters": 5428,
      "Ġpours": 5429,
      "Ġlip": 5430,
      "Ġpaste": 5431,
      "Ġunderwear": 5432,
      "Ġguiding": 5433,
      "Ġdecorating": 5434,
      "rons": 5435,
      "Ġparticip": 5436,
      "Ġwireless": 5437,
      "Ġcrafts": 5438,
      "Ġshadows": 5439,
      "Ġremoved": 5440,
      "Ġautumn": 5441,
      "Ġdepicts": 5442,
      "Ġgarnished": 5443,
      "Ġskyscraper": 5444,
      "Ġskyscrapers": 5445,
      "Ġwonder": 5446,
      "Ġalert": 5447,
      "wise": 5448,
      "Ġmous": 5449,
      "Ġdair": 5450,
      "Ġlanes": 5451,
      "Ġbeers": 5452,
      "amed": 5453,
      "Ġdilapidated": 5454,
      "apers": 5455,
      "Ġkiteboarding": 5456,
      "Ġlovely": 5457,
      "Ġracer": 5458,
      "Ġbricked": 5459,
      "Ġresid": 5460,
      "Ġnoses": 5461,
      "Ġfacility": 5462,
      "Ġspeeds": 5463,
      "Ġwetsuits": 5464,
      "Ġdrain": 5465,
      "Ġblows": 5466,
      "Ġlounges": 5467,
      "Ġslaw": 5468,
      "Ġsplash": 5469,
      "Ġflavored": 5470,
      "Ġexpression": 5471,
      "Ġescal": 5472,
      "Ġhummingbird": 5473,
      "Ġraspberries": 5474,
      "Ġmetropolitan": 5475,
      "Ġsubmerged": 5476,
      "Ġdairy": 5477,
      "iator": 5478,
      "mat": 5479,
      "Ġcraw": 5480,
      "Ġinc": 5481,
      "Ġfaded": 5482,
      "Ġmill": 5483,
      "Ġlat": 5484,
      "Ġlate": 5485,
      "aster": 5486,
      "urity": 5487,
      "using": 5488,
      "Ġearth": 5489,
      "Ġbuy": 5490,
      "ppo": 5491,
      "rispy": 5492,
      "Ġintric": 5493,
      "Ġfound": 5494,
      "gerator": 5495,
      "ified": 5496,
      "Ġbagels": 5497,
      "tock": 5498,
      "shaped": 5499,
      "Ġcommun": 5500,
      "liners": 5501,
      "Ġkittens": 5502,
      "Ġretro": 5503,
      "Ġyour": 5504,
      "Ġholders": 5505,
      "Ġoddly": 5506,
      "Ġsecurity": 5507,
      "Ġmagazines": 5508,
      "Ġdigging": 5509,
      "Ġwok": 5510,
      "Ġsnuggling": 5511,
      "Ġcuddling": 5512,
      "Ġhundreds": 5513,
      "rofoam": 5514,
      "bread": 5515,
      "food": 5516,
      "fruit": 5517,
      "lane": 5518,
      "Ġest": 5519,
      "Ġtar": 5520,
      "ready": 5521,
      "lets": 5522,
      "Ġdol": 5523,
      "Ġdance": 5524,
      "esting": 5525,
      "estern": 5526,
      "Ġtrailing": 5527,
      "Ġcrowds": 5528,
      "Ġmeet": 5529,
      "Ġpaperwork": 5530,
      "Ġlinens": 5531,
      "Ġstyrofoam": 5532,
      "Ġrugs": 5533,
      "Ġcompete": 5534,
      "Ġburnt": 5535,
      "Ġglow": 5536,
      "Ġarrows": 5537,
      "Ġtorn": 5538,
      "Ġsplashing": 5539,
      "Ġmesh": 5540,
      "Ġbumper": 5541,
      "Ġtechn": 5542,
      "Ġbelongings": 5543,
      "Ġgazelle": 5544,
      "Ġmedicine": 5545,
      "dated": 5546,
      "sion": 5547,
      "Ġ8": 5548,
      "erc": 5549,
      "Ġmc": 5550,
      "Ġmilling": 5551,
      "Ġmama": 5552,
      "Ġgone": 5553,
      "ening": 5554,
      "Ġstalk": 5555,
      "Ġpicks": 5556,
      "Ġcarving": 5557,
      "Ġseed": 5558,
      "Ġbuying": 5559,
      "Ġless": 5560,
      "Ġtrey": 5561,
      "Ġsunsh": 5562,
      "Ġridden": 5563,
      "Ġmouths": 5564,
      "Ġwrapping": 5565,
      "Ġcondu": 5566,
      "Ġ10": 5567,
      "Ġvending": 5568,
      "Ġgentlemen": 5569,
      "Ġauto": 5570,
      "Ġindicates": 5571,
      "Ġvendors": 5572,
      "alog": 5573,
      "Ġpushes": 5574,
      "Ġappetiz": 5575,
      "Ġlivestock": 5576,
      "gin": 5577,
      "shes": 5578,
      "tage": 5579,
      "Ġtilted": 5580,
      "Ġsided": 5581,
      "Ġcin": 5582,
      "Ġinv": 5583,
      "Ġgoose": 5584,
      "Ġropes": 5585,
      "Ġtabletop": 5586,
      "anted": 5587,
      "Ġbusted": 5588,
      "Ġalready": 5589,
      "Ġsandals": 5590,
      "Ġpatri": 5591,
      "Ġwheeler": 5592,
      "Ġpanoram": 5593,
      "Ġexcept": 5594,
      "bbles": 5595,
      "ngth": 5596,
      "Ġcalcul": 5597,
      "Ġdais": 5598,
      "Ġlifted": 5599,
      "haired": 5600,
      "Ġascending": 5601,
      "Ġpretending": 5602,
      "Ġsmoothie": 5603,
      "Ġembracing": 5604,
      "Ġgrapefruit": 5605,
      "Ġbronze": 5606,
      "Ġcamouflage": 5607,
      "Ġcrystal": 5608,
      "Ġambulance": 5609,
      "lings": 5610,
      "oid": 5611,
      "pa": 5612,
      "ith": 5613,
      "Ġwines": 5614,
      "reo": 5615,
      "ister": 5616,
      "Ġhid": 5617,
      "ilight": 5618,
      "ilies": 5619,
      "Ġtwilight": 5620,
      "Ġchi": 5621,
      "Ġrooms": 5622,
      "Ġseeds": 5623,
      "Ġspire": 5624,
      "Ġmoss": 5625,
      "Ġdaylight": 5626,
      "arian": 5627,
      "Ġclim": 5628,
      "Ġknick": 5629,
      "Ġcaboose": 5630,
      "Ġpatrons": 5631,
      "Ġshelter": 5632,
      "Ġexotic": 5633,
      "Ġpartial": 5634,
      "Ġstyl": 5635,
      "Ġtired": 5636,
      "Ġcracked": 5637,
      "Ġjew": 5638,
      "Ġblocked": 5639,
      "Ġraises": 5640,
      "Ġtransporting": 5641,
      "Ġstoplights": 5642,
      "Ġdotted": 5643,
      "Ġpumpkins": 5644,
      "Ġattending": 5645,
      "Ġamidst": 5646,
      "Ġknocked": 5647,
      "Ġvisitors": 5648,
      "Ġfrizbee": 5649,
      "Ġsid": 5650,
      "Ġwro": 5651,
      "Ġpush": 5652,
      "reg": 5653,
      "Ġcd": 5654,
      "erst": 5655,
      "Ġvar": 5656,
      "Ġdocks": 5657,
      "Ġchat": 5658,
      "Ġgrouping": 5659,
      "Ġbuss": 5660,
      "zza": 5661,
      "Ġbacked": 5662,
      "Ġoverg": 5663,
      "Ġteal": 5664,
      "Ġstored": 5665,
      "Ġwiping": 5666,
      "Ġplatters": 5667,
      "Ġsunflowers": 5668,
      "Ġboxing": 5669,
      "Ġremains": 5670,
      "Ġtelevisions": 5671,
      "Ġbottled": 5672,
      "Ġpurch": 5673,
      "Ġhairy": 5674,
      "Ġpillars": 5675,
      "Ġhovering": 5676,
      "Ġincline": 5677,
      "Ġsquares": 5678,
      "Ġstairway": 5679,
      "bank": 5680,
      "Ġretail": 5681,
      "Ġenth": 5682,
      "Ġburrit": 5683,
      "Ġshould": 5684,
      "Ġcondition": 5685,
      "Ġnapping": 5686,
      "Ġlabel": 5687,
      "Ġbundled": 5688,
      "Ġcherries": 5689,
      "Ġwashroom": 5690,
      "Ġexamining": 5691,
      "Ġdestination": 5692,
      "Ġinspecting": 5693,
      "Ġathletic": 5694,
      "Ġhandicap": 5695,
      "Ġlettering": 5696,
      "Ġhawk": 5697,
      "Ġcitrus": 5698,
      "Ġdescribe": 5699,
      "Ġsquirrel": 5700,
      "Ġtangerines": 5701,
      "namon": 5702,
      "Ġequestrian": 5703,
      "Ġescalator": 5704,
      "Ġcinnamon": 5705,
      "brush": 5706,
      "come": 5707,
      "oro": 5708,
      "our": 5709,
      "Ġpc": 5710,
      "Ġfis": 5711,
      "Ġduff": 5712,
      "Ġgown": 5713,
      "uses": 5714,
      "Ġbeca": 5715,
      "Ġflips": 5716,
      "Ġotherwise": 5717,
      "Ġlittered": 5718,
      "Ġdiag": 5719,
      "Ġtriple": 5720,
      "Ġdecorate": 5721,
      "Ġmarkers": 5722,
      "Ġpita": 5723,
      "Ġbarb": 5724,
      "Ġorch": 5725,
      "Ġtyp": 5726,
      "Ġflash": 5727,
      "Ġwashed": 5728,
      "Ġformally": 5729,
      "Ġtrashcan": 5730,
      "Ġseafood": 5731,
      "Ġjuic": 5732,
      "Ġjob": 5733,
      "Ġarchway": 5734,
      "Ġcerem": 5735,
      "Ġprocessor": 5736,
      "Ġcaptured": 5737,
      "Ġbarely": 5738,
      "Ġcanada": 5739,
      "Ġpaneled": 5740,
      "Ġadmiring": 5741,
      "Ġcontemporary": 5742,
      "Ġnecklace": 5743,
      "turned": 5744,
      "Ġbecause": 5745,
      "bled": 5746,
      "iently": 5747,
      "Ġais": 5748,
      "Ġsamp": 5749,
      "itude": 5750,
      "Ġcane": 5751,
      "athered": 5752,
      "Ġfu": 5753,
      "Ġfind": 5754,
      "Ġdome": 5755,
      "Ġlite": 5756,
      "lable": 5757,
      "Ġfrog": 5758,
      "Ġbasic": 5759,
      "Ġsear": 5760,
      "Ġkits": 5761,
      "Ġcact": 5762,
      "Ġalp": 5763,
      "Ġspi": 5764,
      "Ġcontest": 5765,
      "Ġwalked": 5766,
      "pective": 5767,
      "Ġdeckered": 5768,
      "Ġshell": 5769,
      "Ġways": 5770,
      "ize": 5771,
      "Ġgates": 5772,
      "Ġmascot": 5773,
      "Ġappearing": 5774,
      "Ġreturns": 5775,
      "Ġbells": 5776,
      "Ġsectional": 5777,
      "Ġfixture": 5778,
      "Ġrobot": 5779,
      "Ġpilot": 5780,
      "bucks": 5781,
      "Ġcramped": 5782,
      "Ġoctop": 5783,
      "piece": 5784,
      "Ġtypical": 5785,
      "back": 5786,
      "fu": 5787,
      "hich": 5788,
      "tower": 5789,
      "Ġtip": 5790,
      "reme": 5791,
      "Ġfine": 5792,
      "Ġtourn": 5793,
      "Ġtofu": 5794,
      "orial": 5795,
      "Ġneut": 5796,
      "iche": 5797,
      "usi": 5798,
      "ebe": 5799,
      "Ġlaund": 5800,
      "Ġsnowsuit": 5801,
      "Ġwaterfront": 5802,
      "Ġheight": 5803,
      "Ġlength": 5804,
      "Ġcityscape": 5805,
      "Ġrv": 5806,
      "Ġspark": 5807,
      "Ġenorm": 5808,
      "Ġsound": 5809,
      "Ġpatrol": 5810,
      "Ġamuse": 5811,
      "Ġhovers": 5812,
      "Ġpackages": 5813,
      "Ġseem": 5814,
      "Ġclaw": 5815,
      "Ġstarbucks": 5816,
      "Ġremod": 5817,
      "Ġadvertisements": 5818,
      "Ġavai": 5819,
      "strip": 5820,
      "Ġstormy": 5821,
      "Ġrecording": 5822,
      "Ġcreepy": 5823,
      "Ġreclining": 5824,
      "Ġgrinds": 5825,
      "Ġroasted": 5826,
      "Ġpencils": 5827,
      "Ġolympic": 5828,
      "Ġtournament": 5829,
      "Ġenormous": 5830,
      "apped": 5831,
      "cient": 5832,
      "ham": 5833,
      "Ġaff": 5834,
      "Ġwel": 5835,
      "anse": 5836,
      "Ġann": 5837,
      "Ġanalog": 5838,
      "Ġancient": 5839,
      "ala": 5840,
      "Ġstu": 5841,
      "Ġwhis": 5842,
      "Ġcole": 5843,
      "undown": 5844,
      "Ġya": 5845,
      "Ġgrain": 5846,
      "ycling": 5847,
      "Ġlicks": 5848,
      "orth": 5849,
      "Ġspir": 5850,
      "ago": 5851,
      "Ġsandwhich": 5852,
      "Ġbiking": 5853,
      "Ġprob": 5854,
      "Ġrefrid": 5855,
      "Ġmonster": 5856,
      "Ġbarric": 5857,
      "Ġscenery": 5858,
      "Ġexerc": 5859,
      "Ġworkstation": 5860,
      "Ġswims": 5861,
      "Ġbusinessman": 5862,
      "Ġfunction": 5863,
      "Ġspring": 5864,
      "Ġpuppies": 5865,
      "Ġshaved": 5866,
      "Ġextending": 5867,
      "Ġradiator": 5868,
      "Ġtaxiing": 5869,
      "Ġadjusts": 5870,
      "Ġwould": 5871,
      "Ġrecre": 5872,
      "Ġexamines": 5873,
      "Ġrecord": 5874,
      "Ġdivided": 5875,
      "Ġmannequin": 5876,
      "Ġinstructions": 5877,
      "Ġticket": 5878,
      "Ġshepher": 5879,
      "Ġaccompanied": 5880,
      "Ġceremony": 5881,
      "Ġamusement": 5882,
      "Ġavailable": 5883,
      "Ġ9": 5884,
      "inery": 5885,
      "Ġtrot": 5886,
      "Ġses": 5887,
      "Ġwrist": 5888,
      "Ġinj": 5889,
      "Ġfas": 5890,
      "Ġfist": 5891,
      "Ġhusk": 5892,
      "Ġdvd": 5893,
      "Ġginger": 5894,
      "Ġnative": 5895,
      "Ġnamed": 5896,
      "Ġpear": 5897,
      "Ġbeached": 5898,
      "Ġvane": 5899,
      "Ġwaling": 5900,
      "ugly": 5901,
      "style": 5902,
      "inder": 5903,
      "Ġjug": 5904,
      "Ġheater": 5905,
      "Ġscram": 5906,
      "Ġscissor": 5907,
      "Ġlapse": 5908,
      "Ġstylish": 5909,
      "Ġtier": 5910,
      "Ġclad": 5911,
      "Ġreflects": 5912,
      "Ġreflective": 5913,
      "Ġhooded": 5914,
      "Ġcalves": 5915,
      "Ġtanker": 5916,
      "Ġgener": 5917,
      "Ġexpanse": 5918,
      "Ġtrolly": 5919,
      "Ġremoving": 5920,
      "Ġlamppo": 5921,
      "Ġowners": 5922,
      "Ġfedora": 5923,
      "Ġpresented": 5924,
      "Ġgoalie": 5925,
      "Ġrecliner": 5926,
      "Ġtroph": 5927,
      "Ġhandicapped": 5928,
      "Ġrenovated": 5929,
      "Ġgalloping": 5930,
      "Ġpeacock": 5931,
      "Ġsunshine": 5932,
      "Ġhidden": 5933,
      "Ġenthusi": 5934,
      "Ġaisle": 5935,
      "Ġlamppost": 5936,
      "hop": 5937,
      "hold": 5938,
      "lor": 5939,
      "looking": 5940,
      "sized": 5941,
      "walks": 5942,
      "itting": 5943,
      "Ġcame": 5944,
      "lent": 5945,
      "Ġther": 5946,
      "Ġofa": 5947,
      "rots": 5948,
      "Ġdalm": 5949,
      "Ġgn": 5950,
      "enting": 5951,
      "Ġstay": 5952,
      "raut": 5953,
      "Ġatv": 5954,
      "Ġraquet": 5955,
      "Ġairstrip": 5956,
      "Ġsurfboarding": 5957,
      "Ġzuc": 5958,
      "Ġwindm": 5959,
      "Ġfora": 5960,
      "Ġhazy": 5961,
      "Ġsalon": 5962,
      "Ġwildebe": 5963,
      "Ġpackaged": 5964,
      "Ġmachinery": 5965,
      "Ġterri": 5966,
      "Ġburner": 5967,
      "Ġpeeks": 5968,
      "Ġhallow": 5969,
      "Ġhandleb": 5970,
      "Ġradishes": 5971,
      "Ġdots": 5972,
      "Ġbandana": 5973,
      "Ġpumpkin": 5974,
      "Ġreception": 5975,
      "Ġsilhouet": 5976,
      "Ġornament": 5977,
      "Ġinstrument": 5978,
      "Ġbeanie": 5979,
      "yees": 5980,
      "Ġathletes": 5981,
      "Ġfuton": 5982,
      "Ġvictor": 5983,
      "Ġemployees": 5984,
      "Ġbouncing": 5985,
      "Ġflamingos": 5986,
      "Ġbulldog": 5987,
      "Ġconductor": 5988,
      "Ġsesame": 5989,
      "Ġzucch": 5990,
      "cent": 5991,
      "ough": 5992,
      "pit": 5993,
      "Ġbug": 5994,
      "Ġmight": 5995,
      "Ġhug": 5996,
      "Ġhooks": 5997,
      "Ġdang": 5998,
      "Ġga": 5999,
      "Ġgor": 6000,
      "Ġpeach": 6001,
      "Ġpeak": 6002,
      "Ġcocon": 6003,
      "Ġvent": 6004,
      "Ġvine": 6005,
      "Ġvans": 6006,
      "Ġpersonnel": 6007,
      "antic": 6008,
      "Ġdownward": 6009,
      "Ġsnap": 6010,
      "seat": 6011,
      "Ġsidecar": 6012,
      "ctors": 6013,
      "Ġpoor": 6014,
      "Ġhedge": 6015,
      "eech": 6016,
      "Ġhanded": 6017,
      "Ġspars": 6018,
      "Ġspeech": 6019,
      "Ġfilm": 6020,
      "Ġcourts": 6021,
      "Ġviews": 6022,
      "Ġguide": 6023,
      "icking": 6024,
      "Ġmarching": 6025,
      "Ġraining": 6026,
      "Ġsalmon": 6027,
      "Ġcandies": 6028,
      "Ġvanilla": 6029,
      "Ġwedge": 6030,
      "Ġcasual": 6031,
      "Ġpositions": 6032,
      "Ġdragging": 6033,
      "Ġcharging": 6034,
      "Ġnumeral": 6035,
      "Ġcomplex": 6036,
      "Ġconversing": 6037,
      "Ġbarriers": 6038,
      "Ġburners": 6039,
      "Ġornaments": 6040,
      "Ġimport": 6041,
      "Ġarchitect": 6042,
      "Ġponies": 6043,
      "Ġcalculator": 6044,
      "Ġclimbs": 6045,
      "Ġovergrown": 6046,
      "Ġalpine": 6047,
      "Ġneutral": 6048,
      "Ġlaundry": 6049,
      "Ġshepherd": 6050,
      "Ġhalloween": 6051,
      "rs": 6052,
      "ther": 6053,
      "Ġpud": 6054,
      "Ġmp": 6055,
      "Ġmur": 6056,
      "Ġmice": 6057,
      "Ġgang": 6058,
      "Ġthink": 6059,
      "Ġthread": 6060,
      "Ġroy": 6061,
      "Ġyummy": 6062,
      "Ġparrots": 6063,
      "Ġlips": 6064,
      "rise": 6065,
      "Ġslanted": 6066,
      "Ġscra": 6067,
      "Ġlitter": 6068,
      "Ġfoal": 6069,
      "Ġmosa": 6070,
      "Ġmozza": 6071,
      "Ġcolum": 6072,
      "ques": 6073,
      "Ġflowery": 6074,
      "Ġchews": 6075,
      "Ġstandard": 6076,
      "Ġstereo": 6077,
      "Ġboot": 6078,
      "estic": 6079,
      "Ġamtra": 6080,
      "Ġhaircut": 6081,
      "Ġbreads": 6082,
      "Ġsalt": 6083,
      "Ġstrips": 6084,
      "Ġhockey": 6085,
      "Ġsettings": 6086,
      "Ġsubst": 6087,
      "Ġbaseman": 6088,
      "ixed": 6089,
      "quee": 6090,
      "coat": 6091,
      "Ġapproach": 6092,
      "Ġpropell": 6093,
      "Ġpractices": 6094,
      "Ġnoodle": 6095,
      "Ġfinishing": 6096,
      "Ġfocused": 6097,
      "Ġdense": 6098,
      "Ġspinning": 6099,
      "Ġsleigh": 6100,
      "Ġreadies": 6101,
      "Ġcaptivity": 6102,
      "Ġmoment": 6103,
      "Ġlanguages": 6104,
      "Ġcompartments": 6105,
      "Ġdestro": 6106,
      "Ġfleet": 6107,
      "Ġcongreg": 6108,
      "Ġresidence": 6109,
      "Ġoctopus": 6110,
      "Ġprobably": 6111,
      "Ġrefridgerator": 6112,
      "Ġzucchini": 6113,
      "Ġsparsely": 6114,
      "Ġmozzarella": 6115,
      "cycle": 6116,
      "fting": 6117,
      "hift": 6118,
      "of": 6119,
      "ola": 6120,
      "Ġurn": 6121,
      "Ġberry": 6122,
      "Ġhuddle": 6123,
      "Ġnature": 6124,
      "Ġpeaches": 6125,
      "Ġvess": 6126,
      "Ġplun": 6127,
      "Ġyear": 6128,
      "Ġshine": 6129,
      "Ġupwards": 6130,
      "Ġweathered": 6131,
      "Ġclocktower": 6132,
      "Ġcaps": 6133,
      "Ġinterst": 6134,
      "Ġunders": 6135,
      "Ġteac": 6136,
      "Ġflorets": 6137,
      "Ġbunt": 6138,
      "Ġbib": 6139,
      "Ġvegetarian": 6140,
      "Ġwired": 6141,
      "Ġproper": 6142,
      "Ġbarber": 6143,
      "Ġshells": 6144,
      "Ġplantains": 6145,
      "Ġamaz": 6146,
      "Ġexper": 6147,
      "Ġengaging": 6148,
      "Ġconcert": 6149,
      "Ġwaste": 6150,
      "Ġteamm": 6151,
      "structed": 6152,
      "Ġhammer": 6153,
      "Ġwheelie": 6154,
      "Ġdrapes": 6155,
      "Ġutensil": 6156,
      "Ġdelivering": 6157,
      "Ġparasail": 6158,
      "stead": 6159,
      "Ġcushions": 6160,
      "Ġcarefully": 6161,
      "Ġdropping": 6162,
      "Ġidle": 6163,
      "Ġoxen": 6164,
      "Ġbiscuits": 6165,
      "Ġmarkings": 6166,
      "Ġpolitical": 6167,
      "Ġgadgets": 6168,
      "Ġmcd": 6169,
      "Ġhusky": 6170,
      "Ġimportant": 6171,
      "Ġmosaic": 6172,
      "Ġinterstate": 6173,
      "00": 6174,
      "ians": 6175,
      "wor": 6176,
      "erior": 6177,
      "Ġfet": 6178,
      "Ġgull": 6179,
      "ends": 6180,
      "opes": 6181,
      "eline": 6182,
      "Ġreins": 6183,
      "Ġkrispy": 6184,
      "Ġgrove": 6185,
      "Ġgift": 6186,
      "Ġpokes": 6187,
      "Ġcave": 6188,
      "entr": 6189,
      "aneous": 6190,
      "Ġslippers": 6191,
      "Ġteap": 6192,
      "Ġbanquet": 6193,
      "Ġfences": 6194,
      "Ġstuffing": 6195,
      "Ġloft": 6196,
      "Ġherded": 6197,
      "Ġserver": 6198,
      "Ġpatiently": 6199,
      "Ġhousehold": 6200,
      "gram": 6201,
      "rawn": 6202,
      "shop": 6203,
      "Ġbeautifully": 6204,
      "Ġgarb": 6205,
      "Ġpacking": 6206,
      "Ġbloss": 6207,
      "Ġmaster": 6208,
      "Ġcloths": 6209,
      "Ġmakeshift": 6210,
      "Ġturtle": 6211,
      "Ġgrooming": 6212,
      "Ġsections": 6213,
      "Ġhamburgers": 6214,
      "Ġspaces": 6215,
      "Ġsolar": 6216,
      "Ġpressing": 6217,
      "Ġranch": 6218,
      "Ġhunched": 6219,
      "Ġmemorial": 6220,
      "Ġcurrently": 6221,
      "Ġstockings": 6222,
      "Ġdaisies": 6223,
      "Ġamtrak": 6224,
      "Ġmcdonal": 6225,
      "fight": 6226,
      "ys": 6227,
      "Ġugly": 6228,
      "Ġsuck": 6229,
      "Ġwestern": 6230,
      "eries": 6231,
      "Ġinstead": 6232,
      "Ġdanger": 6233,
      "omy": 6234,
      "Ġnasty": 6235,
      "Ġver": 6236,
      "ables": 6237,
      "Ġsnowing": 6238,
      "Ġburied": 6239,
      "Ġpoured": 6240,
      "Ġlive": 6241,
      "Ġwaist": 6242,
      "Ġhandled": 6243,
      "Ġveg": 6244,
      "Ġfilthy": 6245,
      "Ġshowroom": 6246,
      "Ġfencing": 6247,
      "Ġappa": 6248,
      "Ġgoble": 6249,
      "Ġheadlights": 6250,
      "Ġcamel": 6251,
      "Ġforehead": 6252,
      "Ġbarge": 6253,
      "Ġcarried": 6254,
      "Ġconcentr": 6255,
      "bbling": 6256,
      "Ġtrails": 6257,
      "Ġcrab": 6258,
      "Ġstruct": 6259,
      "Ġmedian": 6260,
      "Ġwarns": 6261,
      "Ġcheeses": 6262,
      "Ġpopulated": 6263,
      "Ġlevels": 6264,
      "Ġdescending": 6265,
      "Ġactiv": 6266,
      "Ġferris": 6267,
      "Ġgoof": 6268,
      "market": 6269,
      "Ġpencil": 6270,
      "Ġconsumption": 6271,
      "Ġcrocheted": 6272,
      "Ġcrawling": 6273,
      "Ġpatriotic": 6274,
      "Ġcactus": 6275,
      "Ġaffixed": 6276,
      "je": 6277,
      "sk": 6278,
      "tal": 6279,
      "tail": 6280,
      "vas": 6281,
      "Ġtheater": 6282,
      "rail": 6283,
      "asts": 6284,
      "alls": 6285,
      "Ġtwent": 6286,
      "ica": 6287,
      "Ġpeaking": 6288,
      "Ġroam": 6289,
      "Ġvir": 6290,
      "Ġlav": 6291,
      "Ġchic": 6292,
      "Ġblazer": 6293,
      "Ġsidewalks": 6294,
      "Ġbud": 6295,
      "Ġbubble": 6296,
      "Ġhash": 6297,
      "Ġasia": 6298,
      "Ġtails": 6299,
      "Ġunderground": 6300,
      "Ġstoves": 6301,
      "dock": 6302,
      "Ġsunlit": 6303,
      "Ġlinen": 6304,
      "Ġsleepy": 6305,
      "Ġattach": 6306,
      "Ġengland": 6307,
      "Ġmarketplace": 6308,
      "Ġflowering": 6309,
      "Ġspewing": 6310,
      "Ġrooft": 6311,
      "Ġdeliver": 6312,
      "Ġ12": 6313,
      "Ġneedle": 6314,
      "Ġpeacefully": 6315,
      "Ġsnuggled": 6316,
      "Ġcables": 6317,
      "Ġextreme": 6318,
      "Ġcroissant": 6319,
      "Ġvertical": 6320,
      "Ġwooly": 6321,
      "Ġtrekking": 6322,
      "Ġforaging": 6323,
      "Ġroyal": 6324,
      "ake": 6325,
      "drawn": 6326,
      "shed": 6327,
      "Ġ(": 6328,
      "Ġet": 6329,
      "Ġaboard": 6330,
      "Ġpood": 6331,
      "Ġcrus": 6332,
      "Ġfell": 6333,
      "Ġdre": 6334,
      "Ġdiced": 6335,
      "Ġgoth": 6336,
      "Ġpeps": 6337,
      "Ġkreme": 6338,
      "Ġripen": 6339,
      "Ġteens": 6340,
      "agie": 6341,
      "Ġdiaper": 6342,
      "Ġenough": 6343,
      "umpled": 6344,
      "Ġdrizz": 6345,
      "Ġchee": 6346,
      "Ġadded": 6347,
      "Ġhalfway": 6348,
      "Ġhoop": 6349,
      "Ġhoagie": 6350,
      "Ġobsc": 6351,
      "Ġhelmeted": 6352,
      "Ġspec": 6353,
      "Ġlandscap": 6354,
      "Ġeyed": 6355,
      "Ġlefto": 6356,
      "Ġblooming": 6357,
      "Ġdepar": 6358,
      "Ġgrilling": 6359,
      "Ġcharger": 6360,
      "Ġtossed": 6361,
      "Ġdepicted": 6362,
      "Ġcustomer": 6363,
      "Ġunused": 6364,
      "Ġproduct": 6365,
      "Ġawaits": 6366,
      "Ġtrimmed": 6367,
      "Ġminim": 6368,
      "Ġornamental": 6369,
      "Ġblueberry": 6370,
      "Ġchannel": 6371,
      "Ġsupermarket": 6372,
      "Ġcontraption": 6373,
      "Ġrhin": 6374,
      "Ġscrub": 6375,
      "Ġyacht": 6376,
      "Ġstylized": 6377,
      "Ġburrito": 6378,
      "Ġsubstance": 6379,
      "Ġpepsi": 6380,
      "mers": 6381,
      "not": 6382,
      "Ġaer": 6383,
      "inary": 6384,
      "Ġcris": 6385,
      "Ġfran": 6386,
      "Ġding": 6387,
      "Ġdrop": 6388,
      "Ġcoaster": 6389,
      "ston": 6390,
      "Ġelev": 6391,
      "epad": 6392,
      "Ġboarded": 6393,
      "Ġbridle": 6394,
      "arium": 6395,
      "Ġproce": 6396,
      "Ġproud": 6397,
      "Ġcontact": 6398,
      "Ġcontrolled": 6399,
      "Ġmarks": 6400,
      "Ġsquats": 6401,
      "Ġspeaks": 6402,
      "Ġlands": 6403,
      "Ġhammo": 6404,
      "Ġcroo": 6405,
      "Ġintern": 6406,
      "Ġexterior": 6407,
      "Ġtrailers": 6408,
      "Ġreplic": 6409,
      "Ġgroceries": 6410,
      "Ġcombing": 6411,
      "Ġfedex": 6412,
      "Ġcaptive": 6413,
      "Ġwoven": 6414,
      "Ġtongs": 6415,
      "Ġrhino": 6416,
      "Ġpelican": 6417,
      "Ġbroadway": 6418,
      "Ġinstructor": 6419,
      "Ġintricate": 6420,
      "Ġestab": 6421,
      "Ġjewel": 6422,
      "Ġarchitectural": 6423,
      "Ġteapot": 6424,
      "Ġstructures": 6425,
      "cases": 6426,
      "em": 6427,
      "Ġ-": 6428,
      "Ġast": 6429,
      "Ġoat": 6430,
      "opard": 6431,
      "icans": 6432,
      "Ġreact": 6433,
      "ebur": 6434,
      "Ġchill": 6435,
      "Ġgrave": 6436,
      "Ġmotorboat": 6437,
      "Ġoverturned": 6438,
      "Ġrd": 6439,
      "Ġrundown": 6440,
      "Ġlightly": 6441,
      "Ġfirefight": 6442,
      "ape": 6443,
      "Ġpreform": 6444,
      "Ġheadband": 6445,
      "Ġsafe": 6446,
      "Ġraces": 6447,
      "Ġhighchair": 6448,
      "tenance": 6449,
      "Ġcanvas": 6450,
      "Ġnovel": 6451,
      "Ġpauses": 6452,
      "Ġlayed": 6453,
      "Ġfamous": 6454,
      "Ġstyles": 6455,
      "Ġpacks": 6456,
      "Ġquart": 6457,
      "ensive": 6458,
      "Ġlunging": 6459,
      "Ġhousing": 6460,
      "Ġsorts": 6461,
      "Ġexpired": 6462,
      "Ġstudying": 6463,
      "Ġeyeglasses": 6464,
      "Ġlaughs": 6465,
      "Ġlifegu": 6466,
      "Ġcranes": 6467,
      "Ġbrass": 6468,
      "Ġmaintain": 6469,
      "Ġmaintenance": 6470,
      "Ġfairly": 6471,
      "Ġflavors": 6472,
      "Ġemploy": 6473,
      "Ġretriever": 6474,
      "Ġleashes": 6475,
      "Ġwrought": 6476,
      "Ġcolumns": 6477,
      "Ġdestroyed": 6478,
      "Ġunderside": 6479,
      "Ġhammock": 6480,
      "gi": 6481,
      "lift": 6482,
      "occup": 6483,
      "Ġsell": 6484,
      "Ġsigh": 6485,
      "Ġcly": 6486,
      "Ġmad": 6487,
      "Ġdude": 6488,
      "Ġtoned": 6489,
      "Ġstages": 6490,
      "ckled": 6491,
      "Ġroot": 6492,
      "Ġyield": 6493,
      "Ġrig": 6494,
      "Ġshack": 6495,
      "amel": 6496,
      "Ġbases": 6497,
      "Ġsigning": 6498,
      "Ġherds": 6499,
      "Ġleopard": 6500,
      "Ġtoilette": 6501,
      "Ġconv": 6502,
      "ented": 6503,
      "Ġrat": 6504,
      "Ġrally": 6505,
      "Ġbrowns": 6506,
      "Ġswift": 6507,
      "iforn": 6508,
      "Ġviewer": 6509,
      "Ġbroth": 6510,
      "Ġclip": 6511,
      "Ġprotru": 6512,
      "Ġloves": 6513,
      "Ġknacks": 6514,
      "Ġdiners": 6515,
      "Ġdocking": 6516,
      "Ġclothed": 6517,
      "Ġseeing": 6518,
      "Ġpaddock": 6519,
      "Ġchecker": 6520,
      "Ġmusc": 6521,
      "Ġclaus": 6522,
      "Ġmodels": 6523,
      "Ġglider": 6524,
      "Ġcaliforn": 6525,
      "Ġsurroundings": 6526,
      "Ġnewspapers": 6527,
      "Ġmacbook": 6528,
      "Ġtaste": 6529,
      "Ġplank": 6530,
      "Ġtook": 6531,
      "Ġwander": 6532,
      "Ġsleeve": 6533,
      "Ġcentral": 6534,
      "Ġcuriously": 6535,
      "Ġassembly": 6536,
      "huahua": 6537,
      "Ġnuzzling": 6538,
      "Ġrapids": 6539,
      "Ġaquarium": 6540,
      "Ġshooting": 6541,
      "Ġchihuahua": 6542,
      "Ġrecreational": 6543,
      "Ġactivities": 6544,
      "Ġpoodle": 6545,
      "Ġlifeguard": 6546,
      "occupied": 6547,
      "Ġcalifornia": 6548,
      "down": 6549,
      "flower": 6550,
      "whe": 6551,
      "Ġaffe": 6552,
      "Ġaust": 6553,
      "Ġtil": 6554,
      "Ġsams": 6555,
      "Ġbone": 6556,
      "Ġcant": 6557,
      "lect": 6558,
      "erk": 6559,
      "isted": 6560,
      "Ġhides": 6561,
      "Ġdus": 6562,
      "Ġlant": 6563,
      "Ġstaff": 6564,
      "omas": 6565,
      "Ġvines": 6566,
      "Ġchanging": 6567,
      "Ġblade": 6568,
      "Ġblades": 6569,
      "Ġparks": 6570,
      "Ġmotes": 6571,
      "Ġbackseat": 6572,
      "Ġcouples": 6573,
      "Ġwavy": 6574,
      "Ġrink": 6575,
      "Ġdem": 6576,
      "Ġfireman": 6577,
      "Ġswiss": 6578,
      "Ġenc": 6579,
      "aced": 6580,
      "Ġcontin": 6581,
      "Ġtaller": 6582,
      "Ġrowboat": 6583,
      "Ġgreet": 6584,
      "Ġwheat": 6585,
      "Ġsalsa": 6586,
      "Ġworked": 6587,
      "Ġquaint": 6588,
      "Ġchecked": 6589,
      "Ġentire": 6590,
      "Ġmisc": 6591,
      "meal": 6592,
      "Ġmitts": 6593,
      "Ġtosses": 6594,
      "Ġcertain": 6595,
      "Ġcheesebur": 6596,
      "Ġreceive": 6597,
      "Ġpineapples": 6598,
      "Ġfryer": 6599,
      "Ġidly": 6600,
      "Ġtattoos": 6601,
      "Ġhearts": 6602,
      "Ġbrushed": 6603,
      "Ġspreads": 6604,
      "Ġmeatballs": 6605,
      "Ġwrestling": 6606,
      "Ġpantry": 6607,
      "Ġmechanical": 6608,
      "Ġterrier": 6609,
      "Ġvirgin": 6610,
      "Ġgothic": 6611,
      "Ġreplica": 6612,
      "Ġestablish": 6613,
      "Ġjewelry": 6614,
      "dry": 6615,
      "dale": 6616,
      "keb": 6617,
      "kia": 6618,
      "tel": 6619,
      "Ġsund": 6620,
      "Ġbring": 6621,
      "Ġwrong": 6622,
      "Ġping": 6623,
      "atian": 6624,
      "Ġmango": 6625,
      "Ġnook": 6626,
      "Ġthomas": 6627,
      "Ġboston": 6628,
      "Ġperspective": 6629,
      "Ġoutdated": 6630,
      "Ġford": 6631,
      "Ġzomb": 6632,
      "Ġscre": 6633,
      "orted": 6634,
      "Ġcolla": 6635,
      "Ġdiffic": 6636,
      "aps": 6637,
      "Ġkiteboard": 6638,
      "Ġgoers": 6639,
      "Ġanimated": 6640,
      "Ġarts": 6641,
      "Ġproje": 6642,
      "Ġfours": 6643,
      "Ġsteal": 6644,
      "Ġattack": 6645,
      "Ġpaneling": 6646,
      "Ġhour": 6647,
      "Ġsalads": 6648,
      "Ġbeauty": 6649,
      "Ġbutcher": 6650,
      "born": 6651,
      "Ġgloomy": 6652,
      "Ġmason": 6653,
      "Ġburgers": 6654,
      "Ġcasting": 6655,
      "Ġstreamers": 6656,
      "Ġglaze": 6657,
      "Ġpatterns": 6658,
      "Ġobserve": 6659,
      "ratul": 6660,
      "Ġroasting": 6661,
      "Ġpalace": 6662,
      "Ġspreading": 6663,
      "Ġboulders": 6664,
      "Ġappetizers": 6665,
      "orous": 6666,
      "Ġtrotting": 6667,
      "Ġdalmatian": 6668,
      "Ġmurky": 6669,
      "Ġminimal": 6670,
      "Ġemployee": 6671,
      "Ġaffection": 6672,
      "Ġdifficult": 6673,
      "nas": 6674,
      "oy": 6675,
      "Ġtit": 6676,
      "Ġtell": 6677,
      "Ġwid": 6678,
      "Ġstalks": 6679,
      "Ġtwel": 6680,
      "Ġpeels": 6681,
      "Ġcoated": 6682,
      "Ġbeam": 6683,
      "Ġboiled": 6684,
      "Ġshark": 6685,
      "Ġcaramel": 6686,
      "Ġbust": 6687,
      "Ġbuds": 6688,
      "Ġgifts": 6689,
      "Ġlizard": 6690,
      "Ġzo": 6691,
      "Ġwakeb": 6692,
      "Ġconne": 6693,
      "Ġthroughout": 6694,
      "Ġbrownies": 6695,
      "Ġfrisby": 6696,
      "Ġcolumn": 6697,
      "Ġprey": 6698,
      "uffed": 6699,
      "Ġtriangle": 6700,
      "uggling": 6701,
      "Ġunb": 6702,
      "Ġunoccupied": 6703,
      "Ġnokia": 6704,
      "Ġhours": 6705,
      "Ġpaying": 6706,
      "Ġlayers": 6707,
      "Ġpretz": 6708,
      "Ġwedges": 6709,
      "Ġlunges": 6710,
      "Ġgathers": 6711,
      "Ġladen": 6712,
      "Ġmodified": 6713,
      "Ġstrap": 6714,
      "Ġmisses": 6715,
      "Ġangel": 6716,
      "Ġbake": 6717,
      "Ġrecently": 6718,
      "Ġregion": 6719,
      "Ġbordered": 6720,
      "Ġdivider": 6721,
      "Ġsauerk": 6722,
      "Ġstreetlights": 6723,
      "Ġmerch": 6724,
      "ĠĠĠĠĠĠĠĠ": 6725,
      "Ġresemb": 6726,
      "Ġgraphic": 6727,
      "Ġcommunity": 6728,
      "Ġtechnol": 6729,
      "Ġpanoramic": 6730,
      "Ġinjured": 6731,
      "Ġscrambled": 6732,
      "Ġtherm": 6733,
      "Ġhandlebars": 6734,
      "Ġplunger": 6735,
      "Ġtwenty": 6736,
      "Ġelevator": 6737,
      "Ġoatmeal": 6738,
      "Ġaustral": 6739,
      "Ġsamsung": 6740,
      "Ġcheeseburger": 6741,
      "filled": 6742,
      "nie": 6743,
      "well": 6744,
      "yer": 6745,
      "Ġir": 6746,
      "Ġspen": 6747,
      "Ġsquee": 6748,
      "Ġbitten": 6749,
      "itti": 6750,
      "Ġpra": 6751,
      "Ġcel": 6752,
      "Ġinner": 6753,
      "ison": 6754,
      "Ġmu": 6755,
      "Ġtone": 6756,
      "Ġnorm": 6757,
      "Ġpeer": 6758,
      "Ġfift": 6759,
      "Ġlaunch": 6760,
      "Ġbatch": 6761,
      "ami": 6762,
      "Ġseal": 6763,
      "Ġplayfully": 6764,
      "Ġcombo": 6765,
      "Ġmotoc": 6766,
      "Ġconstructed": 6767,
      "Ġshears": 6768,
      "Ġboating": 6769,
      "ifying": 6770,
      "Ġpreser": 6771,
      "Ġhyd": 6772,
      "Ġstandup": 6773,
      "Ġsunrise": 6774,
      "Ġpromin": 6775,
      "Ġknot": 6776,
      "Ġwhose": 6777,
      "Ġrescue": 6778,
      "Ġpancake": 6779,
      "Ġblank": 6780,
      "inton": 6781,
      "Ġfamilies": 6782,
      "Ġnewborn": 6783,
      "Ġindia": 6784,
      "Ġcurbside": 6785,
      "Ġflatbread": 6786,
      "Ġswimsuit": 6787,
      "Ġrounded": 6788,
      "Ġrugby": 6789,
      "Ġcrazy": 6790,
      "Ġgroomed": 6791,
      "Ġbrace": 6792,
      "Ġribbons": 6793,
      "Ġbundt": 6794,
      "Ġsweets": 6795,
      "Ġlearn": 6796,
      "Ġarrive": 6797,
      "Ġkayaks": 6798,
      "Ġfoamy": 6799,
      "Ġspanish": 6800,
      "Ġdemonstration": 6801,
      "Ġoversized": 6802,
      "Ġmaneuver": 6803,
      "known": 6804,
      "Ġsouthw": 6805,
      "Ġluxury": 6806,
      "Ġinvestigating": 6807,
      "Ġflanked": 6808,
      "Ġjuicer": 6809,
      "Ġvictorian": 6810,
      "Ġdangling": 6811,
      "Ġgoofy": 6812,
      "Ġchicago": 6813,
      "Ġtwelve": 6814,
      "ah": 6815,
      "cis": 6816,
      "mble": 6817,
      "Ġx": 6818,
      "Ġage": 6819,
      "Ġable": 6820,
      "Ġaward": 6821,
      "Ġarab": 6822,
      "inating": 6823,
      "Ġsure": 6824,
      "Ġinn": 6825,
      "Ġgig": 6826,
      "Ġlic": 6827,
      "Ġlast": 6828,
      "Ġtot": 6829,
      "icles": 6830,
      "icular": 6831,
      "Ġcoaches": 6832,
      "Ġere": 6833,
      "Ġbeads": 6834,
      "Ġholly": 6835,
      "Ġlaven": 6836,
      "stick": 6837,
      "stract": 6838,
      "Ġblown": 6839,
      "Ġbackside": 6840,
      "Ġtricycle": 6841,
      "Ġsunb": 6842,
      "Ġunknown": 6843,
      "Ġboxed": 6844,
      "Ġlock": 6845,
      "Ġmemo": 6846,
      "Ġpitches": 6847,
      "clock": 6848,
      "Ġpanting": 6849,
      "Ġlaps": 6850,
      "Ġcenterpiece": 6851,
      "ensely": 6852,
      "Ġceilings": 6853,
      "Ġ11": 6854,
      "Ġabund": 6855,
      "Ġabstract": 6856,
      "Ġmagnet": 6857,
      "Ġsweep": 6858,
      "Ġrecipe": 6859,
      "Ġrepairs": 6860,
      "Ġdrops": 6861,
      "Ġfixed": 6862,
      "Ġrobes": 6863,
      "Ġgoog": 6864,
      "Ġmailbox": 6865,
      "Ġdunkin": 6866,
      "Ġmannequins": 6867,
      "Ġrelig": 6868,
      "Ġcroissants": 6869,
      "Ġscoop": 6870,
      "Ġtusked": 6871,
      "kiing": 6872,
      "Ġhurdle": 6873,
      "Ġgraduation": 6874,
      "Ġspiral": 6875,
      "Ġpropellor": 6876,
      "Ġmiscell": 6877,
      "Ġestablishment": 6878,
      "dryer": 6879,
      "Ġsauerkraut": 6880,
      "bla": 6881,
      "cre": 6882,
      "water": 6883,
      "Ġtack": 6884,
      "Ġtshirt": 6885,
      "Ġtightly": 6886,
      "Ġbm": 6887,
      "Ġcrying": 6888,
      "roning": 6889,
      "Ġdan": 6890,
      "Ġnational": 6891,
      "iders": 6892,
      "olding": 6893,
      "arded": 6894,
      "Ġcoal": 6895,
      "Ġbound": 6896,
      "Ġye": 6897,
      "Ġpars": 6898,
      "atee": 6899,
      "Ġflipped": 6900,
      "Ġouthouse": 6901,
      "Ġsnowman": 6902,
      "Ġseper": 6903,
      "Ġairliners": 6904,
      "Ġplayful": 6905,
      "Ġforrest": 6906,
      "Ġleast": 6907,
      "Ġoveralls": 6908,
      "Ġcoupe": 6909,
      "Ġintense": 6910,
      "Ġlighter": 6911,
      "Ġtaco": 6912,
      "Ġphotoshop": 6913,
      "boats": 6914,
      "Ġhitched": 6915,
      "Ġunt": 6916,
      "venile": 6917,
      "Ġprogram": 6918,
      "Ġcabs": 6919,
      "Ġmark": 6920,
      "tended": 6921,
      "graph": 6922,
      "Ġlooked": 6923,
      "Ġperformance": 6924,
      "Ġedges": 6925,
      "Ġpartition": 6926,
      "Ġsubmar": 6927,
      "Ġironing": 6928,
      "Ġpointy": 6929,
      "Ġquiche": 6930,
      "scale": 6931,
      "Ġdiscs": 6932,
      "Ġcostumed": 6933,
      "Ġjuvenile": 6934,
      "Ġleafless": 6935,
      "Ġbushy": 6936,
      "Ġpresenting": 6937,
      "Ġrearview": 6938,
      "Ġstarts": 6939,
      "Ġsucc": 6940,
      "Ġdumpster": 6941,
      "Ġalleyway": 6942,
      "Ġstroll": 6943,
      "Ġoperated": 6944,
      "Ġpleas": 6945,
      "Ġanticip": 6946,
      "ebox": 6947,
      "Ġseasoned": 6948,
      "Ġnightstands": 6949,
      "Ġmessing": 6950,
      "post": 6951,
      "Ġrenovation": 6952,
      "Ġautomobiles": 6953,
      "Ġrevealing": 6954,
      "Ġdiscussing": 6955,
      "Ġskelet": 6956,
      "Ġconverted": 6957,
      "Ġtwigs": 6958,
      "Ġreleasing": 6959,
      "Ġnavig": 6960,
      "Ġseasoning": 6961,
      "Ġparticipating": 6962,
      "Ġinvol": 6963,
      "Ġvarying": 6964,
      "Ġquarters": 6965,
      "Ġprojection": 6966,
      "Ġlavender": 6967,
      "Ġsubmarine": 6968,
      "ae": 6969,
      "eing": 6970,
      "port": 6971,
      "pace": 6972,
      "wed": 6973,
      "Ġoar": 6974,
      "Ġpong": 6975,
      "Ġfellow": 6976,
      "Ġdated": 6977,
      "unks": 6978,
      "las": 6979,
      "Ġsitt": 6980,
      "ilia": 6981,
      "Ġwhine": 6982,
      "Ġwhip": 6983,
      "Ġpeoples": 6984,
      "Ġvel": 6985,
      "Ġplac": 6986,
      "Ġfrowning": 6987,
      "Ġbattle": 6988,
      "Ġwaln": 6989,
      "Ġloose": 6990,
      "Ġbedside": 6991,
      "Ġbento": 6992,
      "Ġconven": 6993,
      "Ġalt": 6994,
      "Ġalmon": 6995,
      "Ġsli": 6996,
      "Ġslal": 6997,
      "Ġspraw": 6998,
      "Ġbanks": 6999,
      "Ġbanners": 7000,
      "Ġdiff": 7001,
      "Ġsoars": 7002,
      "Ġmount": 7003,
      "Ġstovet": 7004,
      "Ġsheeps": 7005,
      "Ġsunflower": 7006,
      "Ġcoral": 7007,
      "Ġshovel": 7008,
      "Ġcurls": 7009,
      "Ġcanned": 7010,
      "Ġpurses": 7011,
      "Ġamen": 7012,
      "Ġfeature": 7013,
      "Ġpackaging": 7014,
      "Ġswimmers": 7015,
      "Ġlocations": 7016,
      "Ġbloom": 7017,
      "Ġharley": 7018,
      "Ġgrate": 7019,
      "Ġburg": 7020,
      "Ġmicrophones": 7021,
      "Ġcelebratory": 7022,
      "Ġlabels": 7023,
      "Ġbits": 7024,
      "Ġfreely": 7025,
      "uzzle": 7026,
      "Ġunivers": 7027,
      "Ġworkspace": 7028,
      "Ġbundles": 7029,
      "Ġpeaceful": 7030,
      "Ġfolks": 7031,
      "Ġattend": 7032,
      "Ġcompanion": 7033,
      "Ġbison": 7034,
      "Ġtripod": 7035,
      "Ġparasols": 7036,
      "Ġhawai": 7037,
      "Ġcottage": 7038,
      "Ġcongratul": 7039,
      "Ġpelicans": 7040,
      "Ġdiscussion": 7041,
      "Ġwreath": 7042,
      "Ġcrumbs": 7043,
      "Ġallowed": 7044,
      "Ġgestures": 7045,
      "Ġnavigating": 7046,
      "Ġchatting": 7047,
      "Ġwelcome": 7048,
      "Ġyawning": 7049,
      "Ġtrophy": 7050,
      "Ġenthusiast": 7051,
      "Ġwindmill": 7052,
      "Ġrooftop": 7053,
      "Ġpreforming": 7054,
      "Ġclydes": 7055,
      "Ġswiftly": 7056,
      "Ġmiscellaneous": 7057,
      "Ġalmonds": 7058,
      "creen": 7059,
      "for": 7060,
      "fri": 7061,
      "hy": 7062,
      "my": 7063,
      "nes": 7064,
      "wag": 7065,
      "ints": 7066,
      "inted": 7067,
      "itor": 7068,
      "Ġwants": 7069,
      "held": 7070,
      "attended": 7071,
      "Ġgummy": 7072,
      "Ġlla": 7073,
      "raction": 7074,
      "Ġneg": 7075,
      "Ġcob": 7076,
      "Ġeffe": 7077,
      "Ġvers": 7078,
      "undy": 7079,
      "Ġbored": 7080,
      "Ġlazy": 7081,
      "Ġuphill": 7082,
      "Ġmens": 7083,
      "Ġshearing": 7084,
      "Ġscall": 7085,
      "Ġhandmade": 7086,
      "Ġlivingroom": 7087,
      "Ġsox": 7088,
      "ifier": 7089,
      "uffs": 7090,
      "acy": 7091,
      "aces": 7092,
      "ustr": 7093,
      "Ġracers": 7094,
      "Ġdinos": 7095,
      "Ġmonk": 7096,
      "Ġhomeless": 7097,
      "Ġplanted": 7098,
      "Ġsurrounds": 7099,
      "Ġphotographing": 7100,
      "Ġexe": 7101,
      "olded": 7102,
      "Ġbeaks": 7103,
      "Ġfacial": 7104,
      "bbled": 7105,
      "Ġsailors": 7106,
      "tible": 7107,
      "Ġoverlook": 7108,
      "Ġtoddlers": 7109,
      "Ġneath": 7110,
      "Ġjean": 7111,
      "Ġcommuters": 7112,
      "Ġnails": 7113,
      "Ġcollie": 7114,
      "Ġrepres": 7115,
      "Ġbuliding": 7116,
      "Ġsaddled": 7117,
      "Ġpinned": 7118,
      "Ġelbow": 7119,
      "Ġpeanuts": 7120,
      "Ġmelon": 7121,
      "Ġsneaker": 7122,
      "Ġburned": 7123,
      "Ġknitting": 7124,
      "Ġbadm": 7125,
      "Ġparasailer": 7126,
      "Ġfixes": 7127,
      "Ġbarbeque": 7128,
      "Ġhorizontal": 7129,
      "Ġmarshm": 7130,
      "Ġconvertible": 7131,
      "Ġdiagonal": 7132,
      "Ġcoconut": 7133,
      "Ġpudding": 7134,
      "Ġcrooked": 7135,
      "Ġdemol": 7136,
      "Ġreligious": 7137,
      "Ġstovetop": 7138,
      "Ġburgundy": 7139,
      "au": 7140,
      "bl": 7141,
      "don": 7142,
      "das": 7143,
      "Ġsam": 7144,
      "Ġank": 7145,
      "Ġmick": 7146,
      "Ġgalley": 7147,
      "Ġtoli": 7148,
      "unches": 7149,
      "elines": 7150,
      "ards": 7151,
      "Ġeast": 7152,
      "Ġroped": 7153,
      "Ġparmes": 7154,
      "Ġparlor": 7155,
      "Ġchunks": 7156,
      "Ġgras": 7157,
      "Ġfloored": 7158,
      "igns": 7159,
      "story": 7160,
      "airs": 7161,
      "Ġkitchenette": 7162,
      "ief": 7163,
      "Ġoverview": 7164,
      "ential": 7165,
      "Ġglassware": 7166,
      "Ġbrownie": 7167,
      "Ġhandling": 7168,
      "Ġbows": 7169,
      "Ġarches": 7170,
      "Ġknight": 7171,
      "Ġremain": 7172,
      "aki": 7173,
      "Ġcontrolling": 7174,
      "Ġpatient": 7175,
      "Ġbark": 7176,
      "Ġplanters": 7177,
      "Ġattraction": 7178,
      "Ġraincoat": 7179,
      "Ġnumbered": 7180,
      "Ġmats": 7181,
      "Ġmatches": 7182,
      "Ġhairdryer": 7183,
      "Ġstately": 7184,
      "Ġplatforms": 7185,
      "Ġdirects": 7186,
      "Ġarmchair": 7187,
      "Ġtanks": 7188,
      "Ġrooster": 7189,
      "Ġhamster": 7190,
      "Ġdollar": 7191,
      "Ġvisor": 7192,
      "Ġpetals": 7193,
      "Ġexha": 7194,
      "Ġchilds": 7195,
      "Ġvolks": 7196,
      "Ġindicate": 7197,
      "Ġbooths": 7198,
      "Ġsprayed": 7199,
      "Ġdispens": 7200,
      "Ġpopular": 7201,
      "haw": 7202,
      "Ġrepairing": 7203,
      "Ġmovies": 7204,
      "Ġdefensive": 7205,
      "Ġpilots": 7206,
      "Ġcontempl": 7207,
      "Ġcrochet": 7208,
      "Ġera": 7209,
      "Ġbushels": 7210,
      "Ġdetails": 7211,
      "Ġvibr": 7212,
      "Ġwonderful": 7213,
      "Ġincred": 7214,
      "Ġgnar": 7215,
      "Ġsilhouetted": 7216,
      "Ġcheek": 7217,
      "Ġprair": 7218,
      "Ġlicense": 7219,
      "Ġvelvet": 7220,
      "Ġdinosaur": 7221,
      "Ġparmesan": 7222,
      "iel": 7223,
      "long": 7224,
      "ogy": 7225,
      "vids": 7226,
      "Ġbom": 7227,
      "Ġpoo": 7228,
      "Ġcred": 7229,
      "rob": 7230,
      "Ġgut": 7231,
      "Ġlinger": 7232,
      "Ġmantel": 7233,
      "Ġnorth": 7234,
      "Ġcos": 7235,
      "Ġeiff": 7236,
      "Ġbearing": 7237,
      "Ġbeag": 7238,
      "Ġbeams": 7239,
      "ader": 7240,
      "Ġvia": 7241,
      "vern": 7242,
      "Ġlace": 7243,
      "Ġlavis": 7244,
      "Ġupscale": 7245,
      "Ġflush": 7246,
      "ieval": 7247,
      "Ġdisp": 7248,
      "Ġscar": 7249,
      "Ġscore": 7250,
      "Ġscaff": 7251,
      "Ġhandler": 7252,
      "Ġspilled": 7253,
      "Ġflour": 7254,
      "Ġeachother": 7255,
      "Ġfilming": 7256,
      "Ġoffers": 7257,
      "Ġgoatee": 7258,
      "Ġtriangular": 7259,
      "Ġunp": 7260,
      "Ġunion": 7261,
      "Ġemo": 7262,
      "dering": 7263,
      "Ġpatches": 7264,
      "Ġforehand": 7265,
      "Ġcannot": 7266,
      "Ġtoothp": 7267,
      "shot": 7268,
      "Ġbasement": 7269,
      "Ġconcer": 7270,
      "Ġtipped": 7271,
      "Ġprofile": 7272,
      "Ġbaker": 7273,
      "Ġcrash": 7274,
      "Ġcasually": 7275,
      "Ġmisty": 7276,
      "Ġmedieval": 7277,
      "Ġleafs": 7278,
      "Ġlegos": 7279,
      "Ġ18": 7280,
      "Ġshrub": 7281,
      "Ġicebox": 7282,
      "Ġbandan": 7283,
      "Ġaprons": 7284,
      "Ġcruising": 7285,
      "Ġgranola": 7286,
      "Ġparachutes": 7287,
      "Ġadorn": 7288,
      "Ġdetour": 7289,
      "Ġneedles": 7290,
      "Ġactivity": 7291,
      "Ġpigs": 7292,
      "Ġdonkeys": 7293,
      "Ġcockpit": 7294,
      "Ġspanning": 7295,
      "Ġsymbols": 7296,
      "Ġsocializing": 7297,
      "Ġbrowsing": 7298,
      "Ġchalkboard": 7299,
      "Ġdolly": 7300,
      "Ġduffel": 7301,
      "Ġsearching": 7302,
      "Ġbarricade": 7303,
      "Ġvessel": 7304,
      "Ġnormal": 7305,
      "Ġgigantic": 7306,
      "Ġparsley": 7307,
      "Ġmickey": 7308,
      "Ġtoliet": 7309,
      "Ġprairie": 7310,
      "vidson": 7311,
      "Ġeiffel": 7312,
      "Ġlavish": 7313,
      "bus": 7314,
      "dar": 7315,
      "eding": 7316,
      "gus": 7317,
      "with": 7318,
      "Ġ$": 7319,
      "inis": 7320,
      "Ġtips": 7321,
      "Ġtells": 7322,
      "Ġsen": 7323,
      "Ġocc": 7324,
      "itol": 7325,
      "Ġpins": 7326,
      "Ġcyl": 7327,
      "Ġmal": 7328,
      "Ġhoo": 7329,
      "Ġhugs": 7330,
      "Ġdw": 7331,
      "ometer": 7332,
      "organ": 7333,
      "Ġner": 7334,
      "Ġwhom": 7335,
      "olin": 7336,
      "Ġchoo": 7337,
      "ulture": 7338,
      "stairs": 7339,
      "Ġgiven": 7340,
      "Ġeatery": 7341,
      "Ġcompon": 7342,
      "ously": 7343,
      "Ġash": 7344,
      "Ġspo": 7345,
      "Ġtren": 7346,
      "Ġswitch": 7347,
      "dog": 7348,
      "Ġcheer": 7349,
      "Ġsales": 7350,
      "Ġaddress": 7351,
      "Ġproc": 7352,
      "Ġembed": 7353,
      "Ġbetter": 7354,
      "ship": 7355,
      "Ġhost": 7356,
      "Ġwildflowers": 7357,
      "rung": 7358,
      "Ġarranging": 7359,
      "Ġquar": 7360,
      "Ġmasks": 7361,
      "Ġcracker": 7362,
      "cola": 7363,
      "Ġcrop": 7364,
      "Ġcapitol": 7365,
      "Ġruler": 7366,
      "Ġprim": 7367,
      "Ġcelebrate": 7368,
      "Ġcelebrates": 7369,
      "Ġshakes": 7370,
      "Ġauditor": 7371,
      "Ġdenim": 7372,
      "Ġlimbs": 7373,
      "Ġprotect": 7374,
      "Ġguards": 7375,
      "Ġordering": 7376,
      "Ġawait": 7377,
      "Ġmajestic": 7378,
      "Ġimpress": 7379,
      "Ġmember": 7380,
      "Ġtemple": 7381,
      "Ġreceiving": 7382,
      "Ġluxurious": 7383,
      "Ġnibbling": 7384,
      "Ġmouses": 7385,
      "Ġsidelines": 7386,
      "works": 7387,
      "Ġfrancis": 7388,
      "Ġdingy": 7389,
      "Ġloveseat": 7390,
      "Ġarabic": 7391,
      "Ġbmw": 7392,
      "Ġskeleton": 7393,
      "Ġslalom": 7394,
      "Ġhawaiian": 7395,
      "Ġclydesdale": 7396,
      "Ġvibrant": 7397,
      "Ġauditorium": 7398,
      "Ġfrancisco": 7399,
      "'re": 7400,
      "gate": 7401,
      "han": 7402,
      "hor": 7403,
      "happ": 7404,
      "Ġamp": 7405,
      "Ġanten": 7406,
      "Ġfrance": 7407,
      "Ġmm": 7408,
      "Ġhig": 7409,
      "Ġdental": 7410,
      "Ġgir": 7411,
      "Ġtoll": 7412,
      "Ġtons": 7413,
      "Ġstro": 7414,
      "Ġisn": 7415,
      "unt": 7416,
      "Ġmanual": 7417,
      "rica": 7418,
      "Ġnecess": 7419,
      "Ġpecking": 7420,
      "Ġec": 7421,
      "Ġvw": 7422,
      "Ġval": 7423,
      "Ġdoily": 7424,
      "Ġplums": 7425,
      "Ġyak": 7426,
      "Ġgrows": 7427,
      "Ġgraf": 7428,
      "ander": 7429,
      "Ġpockets": 7430,
      "rang": 7431,
      "Ġwaking": 7432,
      "Ġalways": 7433,
      "Ġswirl": 7434,
      "Ġdives": 7435,
      "Ġsoil": 7436,
      "Ġsodas": 7437,
      "Ġoffering": 7438,
      "Ġheadset": 7439,
      "Ġusa": 7440,
      "Ġdrum": 7441,
      "Ġdrums": 7442,
      "Ġunattended": 7443,
      "Ġpoll": 7444,
      "Ġrestaurants": 7445,
      "close": 7446,
      "Ġhalfpipe": 7447,
      "Ġexpla": 7448,
      "Ġafrica": 7449,
      "Ġivy": 7450,
      "Ġwraps": 7451,
      "Ġmessages": 7452,
      "Ġcrashed": 7453,
      "Ġfreez": 7454,
      "Ġdiscarded": 7455,
      "Ġangles": 7456,
      "Ġadjust": 7457,
      "Ġtransported": 7458,
      "Ġcowboys": 7459,
      "Ġcombined": 7460,
      "Ġobstacles": 7461,
      "Ġpops": 7462,
      "Ġfestive": 7463,
      "Ġarrives": 7464,
      "Ġmaybe": 7465,
      "Ġminutes": 7466,
      "Ġcollect": 7467,
      "Ġnowhere": 7468,
      "Ġcentury": 7469,
      "Ġboulder": 7470,
      "rabilia": 7471,
      "Ġsampling": 7472,
      "Ġmcdonald": 7473,
      "Ġleftover": 7474,
      "Ġprotruding": 7475,
      "Ġmemorabilia": 7476,
      "Ġsprawled": 7477,
      "Ġamenities": 7478,
      "Ġbadminton": 7479,
      "Ġmarshmallow": 7480,
      "Ġvolkswag": 7481,
      "Ġbeagle": 7482,
      "organized": 7483,
      "Ġembedded": 7484,
      "30": 7485,
      "ike": 7486,
      "kward": 7487,
      "nd": 7488,
      "Ġtater": 7489,
      "Ġtesting": 7490,
      "Ġsings": 7491,
      "Ġbon": 7492,
      "rested": 7493,
      "Ġonward": 7494,
      "Ġmile": 7495,
      "Ġmunching": 7496,
      "Ġhus": 7497,
      "Ġtots": 7498,
      "unction": 7499,
      "Ġeffic": 7500,
      "Ġrent": 7501,
      "Ġreco": 7502,
      "Ġkh": 7503,
      "Ġdoc": 7504,
      "Ġwomans": 7505,
      "Ġripped": 7506,
      "Ġlaw": 7507,
      "Ġraz": 7508,
      "Ġrared": 7509,
      "Ġsequ": 7510,
      "Ġjes": 7511,
      "tles": 7512,
      "Ġweight": 7513,
      "Ġconcept": 7514,
      "Ġslat": 7515,
      "Ġscot": 7516,
      "Ġhandstand": 7517,
      "Ġhandrail": 7518,
      "Ġdiet": 7519,
      "Ġenvel": 7520,
      "Ġhilltop": 7521,
      "Ġstationed": 7522,
      "Ġguides": 7523,
      "Ġadding": 7524,
      "Ġordered": 7525,
      "Ġbooze": 7526,
      "Ġphotography": 7527,
      "Ġbreaded": 7528,
      "Ġcleaner": 7529,
      "Ġpenny": 7530,
      "lender": 7531,
      "Ġfacade": 7532,
      "Ġmilks": 7533,
      "Ġspeckled": 7534,
      "Ġsailor": 7535,
      "Ġplacemat": 7536,
      "Ġflys": 7537,
      "Ġcreamy": 7538,
      "Ġfav": 7539,
      "Ġcardinal": 7540,
      "Ġcircles": 7541,
      "Ġnaps": 7542,
      "Ġstradd": 7543,
      "Ġvisiting": 7544,
      "Ġmedal": 7545,
      "Ġrub": 7546,
      "Ġstarring": 7547,
      "Ġcharter": 7548,
      "Ġdavidson": 7549,
      "Ġawkward": 7550,
      "Ġcopper": 7551,
      "Ġobserves": 7552,
      "Ġbillowing": 7553,
      "Ġillustr": 7554,
      "Ġmattresses": 7555,
      "Ġcliffs": 7556,
      "urfing": 7557,
      "Ġshutters": 7558,
      "Ġclustered": 7559,
      "Ġostriches": 7560,
      "Ġautomatic": 7561,
      "Ġbillboards": 7562,
      "Ġyouths": 7563,
      "Ġtones": 7564,
      "Ġgrasslands": 7565,
      "foil": 7566,
      "Ġwoolly": 7567,
      "Ġdomed": 7568,
      "Ġmissed": 7569,
      "Ġaiming": 7570,
      "Ġpurchase": 7571,
      "Ġannoun": 7572,
      "Ġexercise": 7573,
      "Ġwildebeest": 7574,
      "Ġteacher": 7575,
      "Ġhollywood": 7576,
      "Ġuniversity": 7577,
      "Ġdemolished": 7578,
      "Ġdispensers": 7579,
      "Ġcredit": 7580,
      "Ġconcerned": 7581,
      "happy": 7582,
      "com": 7583,
      "pr": 7584,
      "rd": 7585,
      "ucc": 7586,
      "yon": 7587,
      "Ġsed": 7588,
      "Ġslo": 7589,
      "Ġsipping": 7590,
      "Ġoption": 7591,
      "Ġbris": 7592,
      "Ġbrun": 7593,
      "Ġwife": 7594,
      "Ġwades": 7595,
      "Ġprist": 7596,
      "Ġcds": 7597,
      "Ġcuis": 7598,
      "Ġmoose": 7599,
      "Ġwitha": 7600,
      "Ġhump": 7601,
      "Ġdate": 7602,
      "Ġditch": 7603,
      "oring": 7604,
      "Ġmanic": 7605,
      "Ġnetting": 7606,
      "ass": 7607,
      "oped": 7608,
      "elt": 7609,
      "olate": 7610,
      "Ġpeep": 7611,
      "hern": 7612,
      "Ġskim": 7613,
      "Ġreigns": 7614,
      "Ġholing": 7615,
      "Ġribs": 7616,
      "Ġparis": 7617,
      "Ġshar": 7618,
      "Ġchip": 7619,
      "antly": 7620,
      "Ġflats": 7621,
      "igned": 7622,
      "Ġsele": 7623,
      "Ġblvd": 7624,
      "Ġjac": 7625,
      "Ġhey": 7626,
      "Ġintensely": 7627,
      "agna": 7628,
      "Ġsloped": 7629,
      "Ġlost": 7630,
      "Ġlooms": 7631,
      "Ġbreaks": 7632,
      "Ġages": 7633,
      "tened": 7634,
      "pect": 7635,
      "cedes": 7636,
      "Ġmature": 7637,
      "osk": 7638,
      "Ġglobe": 7639,
      "Ġstairwell": 7640,
      "screen": 7641,
      "Ġclause": 7642,
      "Ġutil": 7643,
      "Ġornately": 7644,
      "Ġsteaming": 7645,
      "Ġfighters": 7646,
      "Ġlids": 7647,
      "Ġexpos": 7648,
      "Ġguitars": 7649,
      "Ġpetted": 7650,
      "Ġfocal": 7651,
      "Ġinstall": 7652,
      "uzzi": 7653,
      "Ġsprays": 7654,
      "Ġgazebo": 7655,
      "Ġtinfoil": 7656,
      "Ġorig": 7657,
      "Ġfriendly": 7658,
      "Ġmelting": 7659,
      "Ġlobster": 7660,
      "Ġseaside": 7661,
      "Ġmaple": 7662,
      "Ġwindsurfer": 7663,
      "Ġalcoholic": 7664,
      "Ġbloody": 7665,
      "Ġipad": 7666,
      "Ġinspects": 7667,
      "Ġcocktail": 7668,
      "Ġdemonstrating": 7669,
      "Ġlasagna": 7670,
      "Ġdetailed": 7671,
      "Ġdolph": 7672,
      "Ġamazing": 7673,
      "Ġconverse": 7674,
      "Ġtechnology": 7675,
      "Ġabundance": 7676,
      "Ġyears": 7677,
      "Ġplacid": 7678,
      "Ġaltitude": 7679,
      "hydrant": 7680,
      "Ġjacuzzi": 7681,
      "aled": 7682,
      "cars": 7683,
      "gons": 7684,
      "wer": 7685,
      "Ġarid": 7686,
      "Ġsong": 7687,
      "Ġbru": 7688,
      "itive": 7689,
      "heye": 7690,
      "Ġpuffy": 7691,
      "lev": 7692,
      "Ġinse": 7693,
      "Ġming": 7694,
      "Ġdid": 7695,
      "Ġgay": 7696,
      "Ġstab": 7697,
      "Ġstrung": 7698,
      "rack": 7699,
      "owed": 7700,
      "Ġnude": 7701,
      "opened": 7702,
      "ict": 7703,
      "Ġpews": 7704,
      "Ġskill": 7705,
      "Ġren": 7706,
      "Ġplumb": 7707,
      "Ġshield": 7708,
      "Ġlaunching": 7709,
      "Ġgrains": 7710,
      "Ġoutlet": 7711,
      "Ġsurg": 7712,
      "Ġsecl": 7713,
      "Ġbubbles": 7714,
      "Ġskaters": 7715,
      "Ġpound": 7716,
      "Ġmotorists": 7717,
      "Ġdesolate": 7718,
      "Ġwagons": 7719,
      "Ġsheering": 7720,
      "Ġsheared": 7721,
      "Ġfireworks": 7722,
      "Ġswamp": 7723,
      "Ġteh": 7724,
      "Ġdips": 7725,
      "Ġfiltered": 7726,
      "Ġwiim": 7727,
      "ipher": 7728,
      "Ġrestored": 7729,
      "Ġunident": 7730,
      "Ġhatch": 7731,
      "Ġloads": 7732,
      "Ġperipher": 7733,
      "Ġmarine": 7734,
      "uded": 7735,
      "Ġord": 7736,
      "Ġpanels": 7737,
      "weed": 7738,
      "Ġexting": 7739,
      "Ġhound": 7740,
      "Ġpicket": 7741,
      "Ġflames": 7742,
      "Ġcooker": 7743,
      "blem": 7744,
      "Ġpawing": 7745,
      "Ġnotepad": 7746,
      "Ġlapel": 7747,
      "capped": 7748,
      "Ġfeather": 7749,
      "Ġtakeout": 7750,
      "mingly": 7751,
      "Ġseemingly": 7752,
      "Ġartist": 7753,
      "Ġblenders": 7754,
      "Ġwinery": 7755,
      "Ġinterview": 7756,
      "Ġextern": 7757,
      "Ġseaweed": 7758,
      "iously": 7759,
      "Ġsprinkle": 7760,
      "Ġwaterskiing": 7761,
      "Ġangels": 7762,
      "Ġprints": 7763,
      "Ġtuna": 7764,
      "Ġonlooker": 7765,
      "Ġserviced": 7766,
      "Ġcigarettes": 7767,
      "Ġworkshop": 7768,
      "Ġwarmly": 7769,
      "Ġhungry": 7770,
      "Ġstrolling": 7771,
      "Ġlinked": 7772,
      "Ġnotebooks": 7773,
      "Ġkeeping": 7774,
      "Ġelaborately": 7775,
      "Ġemerging": 7776,
      "Ġkiosk": 7777,
      "Ġsatell": 7778,
      "Ġvict": 7779,
      "dressed": 7780,
      "Ġsource": 7781,
      "Ġoccupied": 7782,
      "Ġperfectly": 7783,
      "Ġresemble": 7784,
      "Ġfisheye": 7785,
      "Ġremodel": 7786,
      "Ġstudy": 7787,
      "Ġapparent": 7788,
      "Ġattachment": 7789,
      "Ġlandscaping": 7790,
      "Ġdeparting": 7791,
      "Ġtilting": 7792,
      "Ġspending": 7793,
      "Ġprominent": 7794,
      "Ġphotoshopped": 7795,
      "Ġscaffolding": 7796,
      "Ġbandanna": 7797,
      "Ġrazor": 7798,
      "Ġcuisine": 7799,
      "Ġexternal": 7800,
      "away": 7801,
      "dor": 7802,
      "gien": 7803,
      "hn": 7804,
      "press": 7805,
      "posed": 7806,
      "sive": 7807,
      "Ġq": 7808,
      "Ġtins": 7809,
      "Ġslender": 7810,
      "ites": 7811,
      "Ġwant": 7812,
      "rees": 7813,
      "Ġcider": 7814,
      "Ġtheat": 7815,
      "Ġans": 7816,
      "arat": 7817,
      "robe": 7818,
      "Ġfond": 7819,
      "ism": 7820,
      "Ġmari": 7821,
      "Ġdut": 7822,
      "Ġgum": 7823,
      "Ġlu": 7824,
      "orite": 7825,
      "Ġbeets": 7826,
      "Ġkore": 7827,
      "Ġbod": 7828,
      "Ġshipping": 7829,
      "Ġchub": 7830,
      "Ġchases": 7831,
      "Ġcharm": 7832,
      "Ġflushing": 7833,
      "Ġsnake": 7834,
      "Ġfronts": 7835,
      "Ġbudd": 7836,
      "Ġbuild": 7837,
      "Ġheron": 7838,
      "ppers": 7839,
      "Ġslats": 7840,
      "Ġhandheld": 7841,
      "Ġmoved": 7842,
      "Ġener": 7843,
      "Ġstocking": 7844,
      "Ġapparat": 7845,
      "Ġhygien": 7846,
      "Ġridge": 7847,
      "Ġguided": 7848,
      "Ġunpack": 7849,
      "Ġuneaten": 7850,
      "Ġunopened": 7851,
      "Ġclump": 7852,
      "Ġacting": 7853,
      "Ġacrob": 7854,
      "Ġlongboard": 7855,
      "Ġpassanger": 7856,
      "Ġwalker": 7857,
      "Ġpotty": 7858,
      "Ġmono": 7859,
      "Ġriverbank": 7860,
      "Ġjetliners": 7861,
      "Ġleaking": 7862,
      "Ġrains": 7863,
      "Ġbattery": 7864,
      "Ġhairbrush": 7865,
      "onda": 7866,
      "Ġcountries": 7867,
      "Ġscenes": 7868,
      "Ġedible": 7869,
      "Ġpicturesque": 7870,
      "Ġcreme": 7871,
      "Ġdistorted": 7872,
      "Ġdrawings": 7873,
      "Ġrounds": 7874,
      "Ġcrashes": 7875,
      "ucky": 7876,
      "Ġantiques": 7877,
      "Ġturb": 7878,
      "Ġamerica": 7879,
      "Ġstreaming": 7880,
      "Ġeggpl": 7881,
      "Ġprices": 7882,
      "Ġinfield": 7883,
      "Ġparake": 7884,
      "Ġgazes": 7885,
      "Ġcapture": 7886,
      "Ġjerseys": 7887,
      "Ġkeeps": 7888,
      "Ġpossible": 7889,
      "Ġattendant": 7890,
      "Ġtissues": 7891,
      "Ġuk": 7892,
      "Ġtattooed": 7893,
      "Ġcompetitor": 7894,
      "Ġcuddled": 7895,
      "Ġsaucers": 7896,
      "Ġfitted": 7897,
      "Ġcotton": 7898,
      "Ġbutterflies": 7899,
      "Ġassembled": 7900,
      "Ġbrussel": 7901,
      "Ġreveals": 7902,
      "Ġreceipt": 7903,
      "Ġaqua": 7904,
      "paved": 7905,
      "Ġfuel": 7906,
      "Ġremodeling": 7907,
      "Ġteammates": 7908,
      "Ġconcentrating": 7909,
      "Ġetc": 7910,
      "Ġdreary": 7911,
      "Ġaerop": 7912,
      "Ġproudly": 7913,
      "Ġsouthwest": 7914,
      "blue": 7915,
      "Ġincredible": 7916,
      "Ġpooh": 7917,
      "Ġsenior": 7918,
      "Ġhusband": 7919,
      "Ġjesus": 7920,
      "Ġfavorite": 7921,
      "Ġpristine": 7922,
      "Ġsecluded": 7923,
      "Ġextinguis": 7924,
      "Ġchubby": 7925,
      "bear": 7926,
      "horn": 7927,
      "iing": 7928,
      "ires": 7929,
      "ointed": 7930,
      "son": 7931,
      "sian": 7932,
      "tw": 7933,
      "uary": 7934,
      "Ġsin": 7935,
      "Ġsum": 7936,
      "Ġoars": 7937,
      "Ġbol": 7938,
      "Ġbroom": 7939,
      "Ġpy": 7940,
      "Ġpam": 7941,
      "Ġcities": 7942,
      "Ġcycling": 7943,
      "Ġmul": 7944,
      "Ġhips": 7945,
      "Ġdv": 7946,
      "Ġdell": 7947,
      "Ġstark": 7948,
      "ows": 7949,
      "oper": 7950,
      "ooted": 7951,
      "igan": 7952,
      "Ġbee": 7953,
      "Ġdoctor": 7954,
      "Ġshaker": 7955,
      "Ġlaz": 7956,
      "Ġtopless": 7957,
      "Ġchase": 7958,
      "Ġsmas": 7959,
      "Ġflu": 7960,
      "Ġblackberry": 7961,
      "Ġsignpost": 7962,
      "Ġjud": 7963,
      "Ġjuggling": 7964,
      "Ġmotif": 7965,
      "Ġliber": 7966,
      "Ġhero": 7967,
      "Ġheating": 7968,
      "Ġlecture": 7969,
      "Ġoverfl": 7970,
      "Ġdisgus": 7971,
      "Ġrushing": 7972,
      "Ġrumpled": 7973,
      "Ġtap": 7974,
      "Ġtagging": 7975,
      "Ġspice": 7976,
      "Ġspider": 7977,
      "Ġchew": 7978,
      "Ġfeild": 7979,
      "Ġsaw": 7980,
      "Ġadv": 7981,
      "Ġprom": 7982,
      "Ġago": 7983,
      "Ġtvs": 7984,
      "coln": 7985,
      "Ġsticky": 7986,
      "Ġstrikes": 7987,
      "Ġshoppers": 7988,
      "Ġcommon": 7989,
      "Ġpavil": 7990,
      "spring": 7991,
      "Ġcreating": 7992,
      "Ġcreature": 7993,
      "Ġgripping": 7994,
      "Ġbalding": 7995,
      "Ġcurtained": 7996,
      "Ġcrafting": 7997,
      "Ġformations": 7998,
      "Ġcrock": 7999,
      "Ġjoy": 8000,
      "Ġglide": 8001,
      "Ġexplo": 8002,
      "Ġraisins": 8003,
      "Ġangled": 8004,
      "Ġinfront": 8005,
      "Ġorganic": 8006,
      "Ġprincess": 8007,
      "Ġcompleting": 8008,
      "Ġturkeys": 8009,
      "Ġpumps": 8010,
      "Ġfaucets": 8011,
      "Ġstrand": 8012,
      "Ġfatig": 8013,
      "Ġeagerly": 8014,
      "Ġantelopes": 8015,
      "Ġhearty": 8016,
      "Ġpenguins": 8017,
      "Ġavocados": 8018,
      "Ġrelated": 8019,
      "Ġnuzzle": 8020,
      "Ġpacifier": 8021,
      "Ġinvestig": 8022,
      "Ġ201": 8023,
      "Ġlipstick": 8024,
      "Ġorchard": 8025,
      "Ġgorilla": 8026,
      "Ġpoorly": 8027,
      "Ġcongregate": 8028,
      "Ġgulls": 8029,
      "Ġgoblets": 8030,
      "Ġrhinos": 8031,
      "Ġfirefighters": 8032,
      "Ġmaintained": 8033,
      "Ġcollared": 8034,
      "cream": 8035,
      "Ġversion": 8036,
      "Ġbomber": 8037,
      "Ġdispos": 8038,
      "Ġtrench": 8039,
      "Ġprocession": 8040,
      "Ġantenna": 8041,
      "Ġmarshmallows": 8042,
      "Ġflatscreen": 8043,
      "levard": 8044,
      "Ġhygiene": 8045,
      "20": 8046,
      "bre": 8047,
      "brown": 8048,
      "dish": 8049,
      "gran": 8050,
      "girl": 8051,
      "game": 8052,
      "izz": 8053,
      "quit": 8054,
      "sy": 8055,
      "war": 8056,
      "zed": 8057,
      "ĊĊ": 8058,
      "Ġtiling": 8059,
      "Ġsche": 8060,
      "Ġwade": 8061,
      "hell": 8062,
      "Ġpome": 8063,
      "Ġpunch": 8064,
      "Ġcri": 8065,
      "erature": 8066,
      "Ġinser": 8067,
      "Ġfr": 8068,
      "Ġfills": 8069,
      "Ġmam": 8070,
      "Ġmint": 8071,
      "Ġhate": 8072,
      "Ġdying": 8073,
      "Ġdanc": 8074,
      "Ġdummy": 8075,
      "onge": 8076,
      "etti": 8077,
      "asting": 8078,
      "changing": 8079,
      "upe": 8080,
      "Ġev": 8081,
      "Ġbeet": 8082,
      "Ġtrade": 8083,
      "Ġdod": 8084,
      "Ġplans": 8085,
      "Ġplowing": 8086,
      "Ġstreetcar": 8087,
      "Ġfired": 8088,
      "Ġboar": 8089,
      "veled": 8090,
      "Ġrivers": 8091,
      "Ġcha": 8092,
      "Ġchim": 8093,
      "Ġchang": 8094,
      "Ġchute": 8095,
      "Ġlarg": 8096,
      "Ġflop": 8097,
      "Ġoutc": 8098,
      "sty": 8099,
      "storm": 8100,
      "Ġseg": 8101,
      "Ġseash": 8102,
      "ainted": 8103,
      "Ġjail": 8104,
      "Ġjala": 8105,
      "Ġeleven": 8106,
      "Ġhedges": 8107,
      "Ġlets": 8108,
      "Ġoverh": 8109,
      "Ġweed": 8110,
      "Ġslight": 8111,
      "Ġunderwater": 8112,
      "Ġfox": 8113,
      "Ġspool": 8114,
      "Ġfiremen": 8115,
      "Ġswit": 8116,
      "cco": 8117,
      "Ġcolt": 8118,
      "plash": 8119,
      "Ġskylight": 8120,
      "Ġdrift": 8121,
      "angled": 8122,
      "Ġdays": 8123,
      "Ġclust": 8124,
      "Ġadditional": 8125,
      "acing": 8126,
      "Ġpassage": 8127,
      "Ġembank": 8128,
      "rescent": 8129,
      "Ġdoubled": 8130,
      "Ġcanyon": 8131,
      "Ġattic": 8132,
      "Ġrocket": 8133,
      "Ġbatteries": 8134,
      "Ġmultitude": 8135,
      "Ġsquad": 8136,
      "isters": 8137,
      "thora": 8138,
      "Ġquilted": 8139,
      "Ġwrappers": 8140,
      "ension": 8141,
      "Ġwaiter": 8142,
      "Ġsmokes": 8143,
      "Ġreflections": 8144,
      "Ġsignaling": 8145,
      "Ġchops": 8146,
      "Ġadvertises": 8147,
      "Ġmodest": 8148,
      "Ġminivan": 8149,
      "Ġtoasting": 8150,
      "Ġspotless": 8151,
      "Ġmedia": 8152,
      "mobile": 8153,
      "Ġducklings": 8154,
      "Ġarrangements": 8155,
      "Ġorganiz": 8156,
      "hole": 8157,
      "Ġboulevard": 8158,
      "Ġsuspenders": 8159,
      "Ġthought": 8160,
      "Ġplethora": 8161,
      "Ġinterested": 8162,
      "Ġadorns": 8163,
      "Ġtights": 8164,
      "Ġcoastline": 8165,
      "Ġprotesting": 8166,
      "Ġprovides": 8167,
      "sailing": 8168,
      "Ġflavor": 8169,
      "Ġrollerbla": 8170,
      "Ġcentered": 8171,
      "Ġpressed": 8172,
      "Ġconfused": 8173,
      "Ġnurse": 8174,
      "Ġprotesters": 8175,
      "Ġmercedes": 8176,
      "Ġpallet": 8177,
      "Ġcitiz": 8178,
      "Ġdescription": 8179,
      "Ġtemporary": 8180,
      "Ġgazelles": 8181,
      "Ġvertically": 8182,
      "Ġviolin": 8183,
      "Ġmossy": 8184,
      "Ġduffle": 8185,
      "Ġdangerous": 8186,
      "Ġinternational": 8187,
      "Ġcheckerboard": 8188,
      "Ġmangoes": 8189,
      "Ġmotocross": 8190,
      "Ġpleasant": 8191
    },
    "merges": [
      [
        "Ġ",
        "a"
      ],
      [
        "i",
        "n"
      ],
      [
        "Ġ",
        "t"
      ],
      [
        "Ġ",
        "s"
      ],
      [
        "Ġ",
        "o"
      ],
      [
        "in",
        "g"
      ],
      [
        "Ġ",
        "b"
      ],
      [
        "i",
        "t"
      ],
      [
        "Ġ",
        "w"
      ],
      [
        "h",
        "e"
      ],
      [
        "Ġ",
        "p"
      ],
      [
        "a",
        "n"
      ],
      [
        "r",
        "e"
      ],
      [
        "Ġ",
        "c"
      ],
      [
        "l",
        "e"
      ],
      [
        "Ġo",
        "n"
      ],
      [
        "e",
        "r"
      ],
      [
        "Ġt",
        "he"
      ],
      [
        "a",
        "t"
      ],
      [
        "Ġo",
        "f"
      ],
      [
        "Ġ",
        "in"
      ],
      [
        "Ġa",
        "n"
      ],
      [
        "a",
        "r"
      ],
      [
        "r",
        "o"
      ],
      [
        "Ġ",
        "f"
      ],
      [
        "i",
        "s"
      ],
      [
        "Ġ",
        "m"
      ],
      [
        "Ġw",
        "it"
      ],
      [
        "Ġwit",
        "h"
      ],
      [
        "Ġ",
        "h"
      ],
      [
        "Ġ",
        "d"
      ],
      [
        "Ġ",
        "g"
      ],
      [
        "Ġan",
        "d"
      ],
      [
        "Ġ",
        "l"
      ],
      [
        "a",
        "l"
      ],
      [
        "e",
        "n"
      ],
      [
        "Ġt",
        "o"
      ],
      [
        "Ġs",
        "t"
      ],
      [
        "o",
        "m"
      ],
      [
        "r",
        "a"
      ],
      [
        "d",
        "ing"
      ],
      [
        "e",
        "s"
      ],
      [
        "o",
        "n"
      ],
      [
        "c",
        "k"
      ],
      [
        "e",
        "d"
      ],
      [
        "o",
        "w"
      ],
      [
        "Ġ",
        "is"
      ],
      [
        "o",
        "r"
      ],
      [
        "e",
        "t"
      ],
      [
        "u",
        "n"
      ],
      [
        "l",
        "a"
      ],
      [
        "i",
        "r"
      ],
      [
        "Ġm",
        "an"
      ],
      [
        "Ġ",
        "n"
      ],
      [
        "a",
        "s"
      ],
      [
        "o",
        "p"
      ],
      [
        "t",
        "ing"
      ],
      [
        "Ġs",
        "it"
      ],
      [
        "al",
        "l"
      ],
      [
        "c",
        "h"
      ],
      [
        "u",
        "p"
      ],
      [
        "r",
        "i"
      ],
      [
        "o",
        "o"
      ],
      [
        "Ġn",
        "e"
      ],
      [
        "i",
        "l"
      ],
      [
        "Ġt",
        "h"
      ],
      [
        "e",
        "l"
      ],
      [
        "o",
        "t"
      ],
      [
        "u",
        "t"
      ],
      [
        "Ġw",
        "h"
      ],
      [
        "i",
        "d"
      ],
      [
        "u",
        "r"
      ],
      [
        "Ġst",
        "an"
      ],
      [
        "Ġsit",
        "ting"
      ],
      [
        "o",
        "l"
      ],
      [
        "g",
        "e"
      ],
      [
        "er",
        "s"
      ],
      [
        "Ġa",
        "re"
      ],
      [
        "Ġt",
        "w"
      ],
      [
        "i",
        "c"
      ],
      [
        "Ġtw",
        "o"
      ],
      [
        "u",
        "s"
      ],
      [
        "ar",
        "d"
      ],
      [
        "a",
        "b"
      ],
      [
        "Ġa",
        "t"
      ],
      [
        "it",
        "e"
      ],
      [
        "k",
        "ing"
      ],
      [
        "i",
        "g"
      ],
      [
        "Ġp",
        "e"
      ],
      [
        "Ġc",
        "o"
      ],
      [
        "he",
        "r"
      ],
      [
        "Ġ",
        "e"
      ],
      [
        "Ġb",
        "e"
      ],
      [
        "Ġs",
        "k"
      ],
      [
        "s",
        "s"
      ],
      [
        "Ġ",
        "re"
      ],
      [
        "y",
        "ing"
      ],
      [
        "Ġstan",
        "ding"
      ],
      [
        "Ġpe",
        "op"
      ],
      [
        "Ġpeop",
        "le"
      ],
      [
        "Ġt",
        "ra"
      ],
      [
        "id",
        "e"
      ],
      [
        "e",
        "b"
      ],
      [
        "Ġ",
        "ro"
      ],
      [
        "Ġw",
        "om"
      ],
      [
        "o",
        "ard"
      ],
      [
        "a",
        "d"
      ],
      [
        "x",
        "t"
      ],
      [
        "Ġ",
        "v"
      ],
      [
        "ab",
        "le"
      ],
      [
        "Ġ",
        "k"
      ],
      [
        "Ġne",
        "xt"
      ],
      [
        "Ġd",
        "o"
      ],
      [
        "Ġwh",
        "ite"
      ],
      [
        "Ġp",
        "la"
      ],
      [
        "l",
        "o"
      ],
      [
        "Ġwom",
        "an"
      ],
      [
        "Ġ",
        "it"
      ],
      [
        "i",
        "le"
      ],
      [
        "f",
        "f"
      ],
      [
        "Ġh",
        "ol"
      ],
      [
        "Ġst",
        "re"
      ],
      [
        "Ġt",
        "able"
      ],
      [
        "Ġp",
        "l"
      ],
      [
        "un",
        "d"
      ],
      [
        "Ġstre",
        "et"
      ],
      [
        "om",
        "e"
      ],
      [
        "Ġf",
        "i"
      ],
      [
        "Ġf",
        "ro"
      ],
      [
        "oo",
        "d"
      ],
      [
        "Ġb",
        "o"
      ],
      [
        "v",
        "e"
      ],
      [
        "v",
        "er"
      ],
      [
        "Ġth",
        "at"
      ],
      [
        "Ġ",
        "y"
      ],
      [
        "Ġ",
        "ri"
      ],
      [
        "Ġhol",
        "ding"
      ],
      [
        "Ġp",
        "ar"
      ],
      [
        "c",
        "e"
      ],
      [
        "Ġg",
        "ro"
      ],
      [
        "Ġs",
        "h"
      ],
      [
        "Ġs",
        "ome"
      ],
      [
        "Ġl",
        "a"
      ],
      [
        "Ġto",
        "p"
      ],
      [
        "ow",
        "n"
      ],
      [
        "Ġc",
        "h"
      ],
      [
        "Ġg",
        "ra"
      ],
      [
        "Ġs",
        "m"
      ],
      [
        "at",
        "e"
      ],
      [
        "Ġp",
        "ers"
      ],
      [
        "Ġpers",
        "on"
      ],
      [
        "n",
        "t"
      ],
      [
        "Ġb",
        "at"
      ],
      [
        "Ġl",
        "ar"
      ],
      [
        "Ġlar",
        "ge"
      ],
      [
        "an",
        "t"
      ],
      [
        "o",
        "un"
      ],
      [
        "Ġd",
        "own"
      ],
      [
        "Ġc",
        "at"
      ],
      [
        "u",
        "m"
      ],
      [
        "Ġw",
        "at"
      ],
      [
        "an",
        "d"
      ],
      [
        "a",
        "m"
      ],
      [
        "c",
        "he"
      ],
      [
        "Ġc",
        "lo"
      ],
      [
        "Ġp",
        "i"
      ],
      [
        "Ġ",
        "up"
      ],
      [
        "Ġgro",
        "up"
      ],
      [
        "Ġf",
        "l"
      ],
      [
        "el",
        "d"
      ],
      [
        "i",
        "on"
      ],
      [
        "a",
        "ch"
      ],
      [
        "Ġs",
        "n"
      ],
      [
        "Ġc",
        "ar"
      ],
      [
        "Ġdo",
        "g"
      ],
      [
        "u",
        "l"
      ],
      [
        "Ġo",
        "ut"
      ],
      [
        "Ġfi",
        "eld"
      ],
      [
        "k",
        "e"
      ],
      [
        "Ġne",
        "ar"
      ],
      [
        "Ġt",
        "en"
      ],
      [
        "Ġsn",
        "ow"
      ],
      [
        "s",
        "e"
      ],
      [
        "n",
        "is"
      ],
      [
        "Ġsm",
        "all"
      ],
      [
        "Ġtra",
        "in"
      ],
      [
        "ig",
        "n"
      ],
      [
        "Ġten",
        "nis"
      ],
      [
        "Ġb",
        "la"
      ],
      [
        "Ġw",
        "al"
      ],
      [
        "Ġh",
        "is"
      ],
      [
        "Ġfro",
        "nt"
      ],
      [
        "Ġbla",
        "ck"
      ],
      [
        "Ġpar",
        "k"
      ],
      [
        "a",
        "ck"
      ],
      [
        "Ġb",
        "us"
      ],
      [
        "re",
        "e"
      ],
      [
        "Ġ",
        "ra"
      ],
      [
        "Ġb",
        "as"
      ],
      [
        "Ġs",
        "ur"
      ],
      [
        "u",
        "g"
      ],
      [
        "Ġs",
        "ign"
      ],
      [
        "s",
        "t"
      ],
      [
        "h",
        "t"
      ],
      [
        "ro",
        "om"
      ],
      [
        "u",
        "re"
      ],
      [
        "Ġpl",
        "ate"
      ],
      [
        "Ġro",
        "om"
      ],
      [
        "Ġs",
        "e"
      ],
      [
        "ro",
        "w"
      ],
      [
        "in",
        "d"
      ],
      [
        "Ġri",
        "ding"
      ],
      [
        "a",
        "y"
      ],
      [
        "el",
        "l"
      ],
      [
        "Ġb",
        "l"
      ],
      [
        "Ġs",
        "ide"
      ],
      [
        "Ġgra",
        "ss"
      ],
      [
        "Ġa",
        "ir"
      ],
      [
        "oun",
        "g"
      ],
      [
        "Ġk",
        "it"
      ],
      [
        "Ġre",
        "d"
      ],
      [
        "Ġp",
        "h"
      ],
      [
        "Ġb",
        "u"
      ],
      [
        "Ġy",
        "oung"
      ],
      [
        "Ġwat",
        "er"
      ],
      [
        "u",
        "e"
      ],
      [
        "i",
        "m"
      ],
      [
        "Ġb",
        "y"
      ],
      [
        "Ġl",
        "oo"
      ],
      [
        "ro",
        "und"
      ],
      [
        "on",
        "e"
      ],
      [
        "Ġsur",
        "f"
      ],
      [
        "a",
        "in"
      ],
      [
        "v",
        "ing"
      ],
      [
        "Ġbu",
        "il"
      ],
      [
        "b",
        "oard"
      ],
      [
        "r",
        "u"
      ],
      [
        "Ġbat",
        "h"
      ],
      [
        "p",
        "h"
      ],
      [
        "eb",
        "all"
      ],
      [
        "Ġbuil",
        "ding"
      ],
      [
        "Ġbas",
        "eball"
      ],
      [
        "s",
        "ide"
      ],
      [
        "ff",
        "e"
      ],
      [
        "Ġb",
        "ed"
      ],
      [
        "re",
        "en"
      ],
      [
        "re",
        "d"
      ],
      [
        "in",
        "k"
      ],
      [
        "a",
        "ir"
      ],
      [
        "Ġh",
        "as"
      ],
      [
        "Ġsk",
        "at"
      ],
      [
        "Ġpla",
        "y"
      ],
      [
        "Ġc",
        "om"
      ],
      [
        "t",
        "er"
      ],
      [
        "Ġpla",
        "ying"
      ],
      [
        "Ġwh",
        "ile"
      ],
      [
        "p",
        "t"
      ],
      [
        "Ġwal",
        "king"
      ],
      [
        "Ġbath",
        "room"
      ],
      [
        "Ġskat",
        "eb"
      ],
      [
        "Ġg",
        "i"
      ],
      [
        "ig",
        "ht"
      ],
      [
        "z",
        "z"
      ],
      [
        "Ġ",
        "j"
      ],
      [
        "y",
        "c"
      ],
      [
        "Ġf",
        "ood"
      ],
      [
        "Ġf",
        "or"
      ],
      [
        "d",
        "s"
      ],
      [
        "Ġh",
        "or"
      ],
      [
        "Ġ",
        "her"
      ],
      [
        "Ġbl",
        "ue"
      ],
      [
        "Ġpi",
        "zz"
      ],
      [
        "c",
        "t"
      ],
      [
        "Ġp",
        "o"
      ],
      [
        "Ġo",
        "t"
      ],
      [
        "che",
        "n"
      ],
      [
        "Ġkit",
        "chen"
      ],
      [
        "ar",
        "ing"
      ],
      [
        "yc",
        "le"
      ],
      [
        "Ġot",
        "her"
      ],
      [
        "Ġm",
        "ot"
      ],
      [
        "Ġb",
        "ack"
      ],
      [
        "Ġskateb",
        "oard"
      ],
      [
        "Ġw",
        "ood"
      ],
      [
        "Ġg",
        "reen"
      ],
      [
        "a",
        "ge"
      ],
      [
        "um",
        "b"
      ],
      [
        "Ġe",
        "le"
      ],
      [
        "Ġthe",
        "re"
      ],
      [
        "ir",
        "t"
      ],
      [
        "Ġgi",
        "ra"
      ],
      [
        "Ġpizz",
        "a"
      ],
      [
        "Ġl",
        "i"
      ],
      [
        "Ġbo",
        "y"
      ],
      [
        "Ġpark",
        "ed"
      ],
      [
        "i",
        "e"
      ],
      [
        "Ġb",
        "all"
      ],
      [
        "Ġloo",
        "king"
      ],
      [
        "Ġsk",
        "i"
      ],
      [
        "Ġmot",
        "or"
      ],
      [
        "Ġ",
        "he"
      ],
      [
        "Ġ",
        "z"
      ],
      [
        "ug",
        "h"
      ],
      [
        "r",
        "an"
      ],
      [
        "t",
        "ure"
      ],
      [
        "Ġ",
        "le"
      ],
      [
        "Ġb",
        "en"
      ],
      [
        "t",
        "le"
      ],
      [
        "Ġo",
        "ver"
      ],
      [
        "it",
        "y"
      ],
      [
        "Ġw",
        "e"
      ],
      [
        "g",
        "et"
      ],
      [
        "Ġbe",
        "ach"
      ],
      [
        "Ġe",
        "at"
      ],
      [
        "Ġto",
        "ile"
      ],
      [
        "Ġclo",
        "ck"
      ],
      [
        "Ġtoile",
        "t"
      ],
      [
        "Ġbe",
        "ar"
      ],
      [
        "Ġp",
        "ic"
      ],
      [
        "Ġc",
        "a"
      ],
      [
        "Ġco",
        "up"
      ],
      [
        "ir",
        "l"
      ],
      [
        "ph",
        "ant"
      ],
      [
        "e",
        "p"
      ],
      [
        "Ġd",
        "es"
      ],
      [
        "Ġele",
        "phant"
      ],
      [
        "Ġcoup",
        "le"
      ],
      [
        "Ġg",
        "irl"
      ],
      [
        "Ġw",
        "a"
      ],
      [
        "Ġth",
        "ree"
      ],
      [
        "Ġcom",
        "p"
      ],
      [
        "Ġm",
        "en"
      ],
      [
        "re",
        "l"
      ],
      [
        "Ġro",
        "ad"
      ],
      [
        "Ġc",
        "on"
      ],
      [
        "am",
        "e"
      ],
      [
        "en",
        "t"
      ],
      [
        "il",
        "d"
      ],
      [
        "p",
        "p"
      ],
      [
        "an",
        "e"
      ],
      [
        "Ġpic",
        "ture"
      ],
      [
        "le",
        "d"
      ],
      [
        "Ġc",
        "ity"
      ],
      [
        "rel",
        "la"
      ],
      [
        "Ġ",
        "umb"
      ],
      [
        "Ġd",
        "is"
      ],
      [
        "Ġmotor",
        "c"
      ],
      [
        "Ġumb",
        "rella"
      ],
      [
        "Ġs",
        "he"
      ],
      [
        "Ġfl",
        "ying"
      ],
      [
        "ck",
        "s"
      ],
      [
        "la",
        "ss"
      ],
      [
        "Ġto",
        "w"
      ],
      [
        "Ġwe",
        "aring"
      ],
      [
        "r",
        "is"
      ],
      [
        "Ġb",
        "oard"
      ],
      [
        "Ġa",
        "l"
      ],
      [
        "d",
        "y"
      ],
      [
        "Ġs",
        "l"
      ],
      [
        "Ġla",
        "pt"
      ],
      [
        "Ġmotorc",
        "ycle"
      ],
      [
        "Ġlapt",
        "op"
      ],
      [
        "Ġplay",
        "er"
      ],
      [
        "Ġw",
        "ind"
      ],
      [
        "o",
        "us"
      ],
      [
        "e",
        "e"
      ],
      [
        "u",
        "b"
      ],
      [
        "Ġg",
        "ame"
      ],
      [
        "in",
        "e"
      ],
      [
        "il",
        "l"
      ],
      [
        "Ġse",
        "ver"
      ],
      [
        "Ġsever",
        "al"
      ],
      [
        "eb",
        "ra"
      ],
      [
        "Ġz",
        "ebra"
      ],
      [
        "Ġp",
        "as"
      ],
      [
        "Ġch",
        "ild"
      ],
      [
        "Ġcomp",
        "ut"
      ],
      [
        "on",
        "g"
      ],
      [
        "Ġfro",
        "m"
      ],
      [
        "Ġla",
        "ying"
      ],
      [
        "Ġsit",
        "s"
      ],
      [
        "l",
        "d"
      ],
      [
        "Ġa",
        "s"
      ],
      [
        "t",
        "ain"
      ],
      [
        "Ġs",
        "and"
      ],
      [
        "Ġwood",
        "en"
      ],
      [
        "Ġben",
        "ch"
      ],
      [
        "row",
        "n"
      ],
      [
        "Ġin",
        "t"
      ],
      [
        "Ġwind",
        "ow"
      ],
      [
        "Ġ",
        "r"
      ],
      [
        "Ġs",
        "ink"
      ],
      [
        "ro",
        "ugh"
      ],
      [
        "Ġg",
        "lass"
      ],
      [
        "Ġare",
        "a"
      ],
      [
        "k",
        "s"
      ],
      [
        "Ġair",
        "p"
      ],
      [
        "Ġon",
        "e"
      ],
      [
        "Ġthe",
        "ir"
      ],
      [
        "Ġth",
        "rough"
      ],
      [
        "Ġbo",
        "at"
      ],
      [
        "Ġw",
        "all"
      ],
      [
        "Ġch",
        "air"
      ],
      [
        "Ġb",
        "rown"
      ],
      [
        "p",
        "en"
      ],
      [
        "Ġt",
        "ru"
      ],
      [
        "Ġa",
        "round"
      ],
      [
        "Ġhor",
        "se"
      ],
      [
        "ell",
        "ow"
      ],
      [
        "Ġf",
        "ris"
      ],
      [
        "Ġo",
        "ld"
      ],
      [
        "Ġfris",
        "b"
      ],
      [
        "Ġy",
        "ellow"
      ],
      [
        "Ġeat",
        "ing"
      ],
      [
        "Ġl",
        "ight"
      ],
      [
        "Ġs",
        "c"
      ],
      [
        "Ġca",
        "ke"
      ],
      [
        "as",
        "e"
      ],
      [
        "Ġst",
        "op"
      ],
      [
        "Ġh",
        "and"
      ],
      [
        "Ġcomput",
        "er"
      ],
      [
        "Ġt",
        "a"
      ],
      [
        "ul",
        "l"
      ],
[...]
